!
"
#
$
%
&
'
(
)
*
+
,
-
.
/
0
1
2
3
4
5
6
7
8
9
:
;
<
=
>
?
@
A
B
C
D
E
F
G
H
I
J
K
L
M
N
O
P
Q
R
S
T
U
V
W
X
Y
Z
[
\
]
^
_
`
a
b
c
d
e
f
g
h
i
j
k
l
m
n
o
p
q
r
s
t
u
v
w
x
y
z
{
|
}
~
¡
¢
£
¤
¥
¦
§
¨
©
ª
«
¬
®
¯
°
±
²
³
´
µ
¶
·
¸
¹
º
»
¼
½
¾
¿
À
Á
Â
Ã
Ä
Å
Æ
Ç
È
É
Ê
Ë
Ì
Í
Î
Ï
Ð
Ñ
Ò
Ó
Ô
Õ
Ö
×
Ø
Ù
Ú
Û
Ü
Ý
Þ
ß
à
á
â
ã
ä
å
æ
ç
è
é
ê
ë
ì
í
î
ï
ð
ñ
ò
ó
ô
õ
ö
÷
ø
ù
ú
û
ü
ý
þ
ÿ
Ā
ā
Ă
ă
Ą
ą
Ć
ć
Ĉ
ĉ
Ċ
ċ
Č
č
Ď
ď
Đ
đ
Ē
ē
Ĕ
ĕ
Ė
ė
Ę
ę
Ě
ě
Ĝ
ĝ
Ğ
ğ
Ġ
ġ
Ģ
ģ
Ĥ
ĥ
Ħ
ħ
Ĩ
ĩ
Ī
ī
Ĭ
ĭ
Į
į
İ
ı
Ĳ
ĳ
Ĵ
ĵ
Ķ
ķ
ĸ
Ĺ
ĺ
Ļ
ļ
Ľ
ľ
Ŀ
ŀ
Ł
ł
Ń
Ġt
Ġa
he
in
re
on
Ġthe
er
Ġs
at
Ġw
Ġo
en
Ġc
it
is
an
or
es
Ġb
ed
Ġf
ing
Ġp
ou
Ġan
al
ar
Ġto
Ġm
Ġof
Ġin
Ġd
Ġh
Ġand
ic
as
le
Ġth
ion
om
ll
ent
Ġn
Ġl
st
Ġre
ve
Ġe
ro
ly
Ġbe
Ġg
ĠT
ct
ĠS
id
ot
ĠI
ut
et
ĠA
Ġis
Ġon
im
am
ow
ay
ad
se
Ġthat
ĠC
ig
Ġfor
ac
Ġy
ver
ur
Ġu
ld
Ġst
ĠM
's
Ġhe
Ġit
ation
ith
ir
ce
Ġyou
il
ĠB
Ġwh
ol
ĠP
Ġwith
Ġ1
ter
ch
Ġas
Ġwe
Ġ(
nd
ill
ĠD
if
Ġ2
ag
ers
ke
Ġ"
ĠH
em
Ġcon
ĠW
ĠR
her
Ġwas
Ġr
od
ĠF
ul
ate
Ġat
ri
pp
ore
ĠThe
Ġse
us
Ġpro
Ġha
um
Ġare
Ġde
ain
and
Ġor
igh
est
ist
ab
rom
ĠN
th
Ġcom
ĠG
un
op
00
ĠL
Ġnot
ess
Ġex
Ġv
res
ĠE
ew
ity
ant
Ġby
el
os
ort
oc
qu
Ġfrom
Ġhave
Ġsu
ive
ould
Ġsh
Ġthis
nt
ra
pe
ight
art
ment
Ġal
ust
end
--
all
ĠO
ack
Ġch
Ġle
ies
red
ard
âĢ
out
ĠJ
Ġab
ear
iv
ally
our
ost
gh
pt
Ġpl
ast
Ġcan
ak
ome
ud
The
Ġhis
Ġdo
Ġgo
Ġhas
ge
't
ĠU
rou
Ġsa
Ġj
Ġbut
Ġwor
Ġall
ect
Ġk
ame
Ġwill
ok
Ġwhe
Ġthey
ide
01
ff
ich
pl
ther
Ġtr
..
Ġint
ie
ure
age
Ġne
ial
ap
ine
ice
Ġme
Ġout
ans
one
ong
ions
Ġwho
ĠK
Ġup
Ġtheir
Ġad
Ġ3
Ġus
ated
ous
Ġmore
ue
og
ĠSt
ind
ike
Ġso
ime
per
."
ber
iz
act
Ġone
Ġsaid
Ġ-
are
Ġyour
cc
ĠTh
Ġcl
ep
ake
able
ip
Ġcont
Ġwhich
ia
Ġim
Ġabout
Ġwere
very
ub
Ġhad
Ġen
Ġcomp
,"
ĠIn
Ġun
Ġag
ire
ace
au
ary
Ġwould
ass
ry
ĠâĢ
cl
ook
ere
so
ĠV
ign
ib
Ġoff
Ġte
ven
ĠY
ile
ose
ite
orm
Ġ201
Ġres
Ġman
Ġper
Ġother
ord
ult
Ġbeen
Ġlike
ase
ance
ks
ays
own
ence
Ġdis
ction
Ġany
Ġapp
Ġsp
int
ress
ations
ail
Ġ4
ical
Ġthem
Ġher
ount
ĠCh
Ġar
Ġif
Ġthere
Ġpe
Ġyear
av
Ġmy
Ġsome
Ġwhen
ough
ach
Ġthan
ru
ond
ick
Ġover
vel
Ġqu
ĊĊ
Ġsc
reat
ree
ĠIt
ound
port
Ġalso
Ġpart
fter
Ġkn
Ġbec
Ġtime
ens
Ġ5
ople
Ġwhat
Ġno
du
mer
ang
Ġnew
----
Ġget
ory
ition
ings
Ġjust
Ġinto
Ġ0
ents
ove
te
Ġpeople
Ġpre
Ġits
Ġrec
Ġtw
ian
irst
ark
ors
Ġwork
ade
ob
Ġshe
Ġour
wn
ink
lic
Ġ19
ĠHe
ish
nder
ause
Ġhim
ons
Ġ[
Ġro
form
ild
ates
vers
Ġonly
oll
Ġspe
ck
ell
amp
Ġacc
Ġbl
ious
urn
ft
ood
Ġhow
hed
Ġ'
Ġafter
aw
Ġatt
ov
ne
Ġplay
erv
ict
Ġcould
itt
Ġam
Ġfirst
Ġ6
Ġact
Ġ$
ec
hing
ual
ull
Ġcomm
oy
old
ces
ater
Ġfe
Ġbet
we
iff
Ġtwo
ock
Ġback
).
ident
Ġunder
rough
sel
xt
Ġmay
round
Ġpo
ph
iss
Ġdes
Ġmost
Ġdid
Ġadd
ject
Ġinc
fore
Ġpol
ont
Ġagain
clud
tern
Ġknow
Ġneed
Ġcons
Ġco
Ġ.
Ġwant
Ġsee
Ġ7
ning
iew
ĠThis
ced
Ġeven
Ġind
ty
ĠWe
ath
Ġthese
Ġpr
Ġuse
Ġbecause
Ġfl
ng
Ġnow
ĠâĢĵ
com
ise
Ġmake
Ġthen
ower
Ġevery
ĠUn
Ġsec
oss
uch
Ġem
Ġ=
ĠRe
ied
rit
Ġinv
lect
Ġsupp
ating
Ġlook
man
pect
Ġ8
row
Ġbu
Ġwhere
ific
Ġyears
ily
Ġdiff
Ġshould
Ġrem
Th
In
Ġev
day
're
rib
Ġrel
ss
Ġdef
Ġright
Ġsy
),
les
000
hen
Ġthrough
ĠTr
__
Ġway
Ġdon
Ġ,
Ġ10
ased
Ġass
ublic
Ġreg
ĠAnd
ix
Ġvery
Ġinclud
other
Ġimp
oth
Ġsub
ĠâĢĶ
Ġbeing
arg
ĠWh
==
ible
Ġdoes
ange
ram
Ġ9
ert
ps
ited
ational
Ġbr
Ġdown
Ġmany
aking
Ġcall
uring
ities
Ġph
ics
als
Ġdec
ative
ener
Ġbefore
ility
Ġwell
Ġmuch
erson
Ġthose
Ġsuch
Ġke
Ġend
ĠBut
ason
ting
Ġlong
ef
Ġthink
ys
Ġbel
Ġsm
its
ax
Ġown
Ġprov
Ġset
ife
ments
ble
ward
Ġshow
Ġpres
ms
omet
Ġob
Ġsay
ĠSh
ts
ful
Ġeff
Ġgu
Ġinst
und
ren
cess
Ġent
ĠYou
Ġgood
Ġstart
ince
Ġmade
tt
stem
olog
up
Ġ|
ump
Ġhel
vern
ular
ually
Ġac
Ġmon
Ġlast
Ġ200
10
Ġstud
ures
ĠAr
self
ars
meric
ues
cy
Ġmin
ollow
Ġcol
io
Ġmod
Ġcount
ĠCom
hes
Ġfin
air
ier
âĢĶ
read
ank
atch
ever
Ġstr
Ġpoint
ork
ĠNew
Ġsur
ool
alk
ement
Ġused
ract
ween
Ġsame
oun
ĠAl
ci
Ġdiffere
Ġwhile
--------
Ġgame
cept
Ġsim
...
Ġinter
ek
Ġreport
Ġprodu
Ġstill
led
ah
Ġhere
Ġworld
Ġthough
Ġnum
arch
imes
ale
ĠSe
ĠIf
//
ĠLe
Ġret
Ġref
Ġtrans
ner
ution
ters
Ġtake
ĠCl
Ġconf
way
ave
Ġgoing
Ġsl
ug
ĠAmeric
Ġspec
Ġhand
Ġbetween
ists
ĠDe
oot
It
Ġear
Ġagainst
Ġhigh
gan
az
ather
Ġexp
Ġop
Ġins
Ġgr
Ġhelp
Ġrequ
ets
ins
ĠPro
ism
Ġfound
land
ata
uss
ames
Ġperson
Ġgreat
pr
Ġsign
ĠAn
've
Ġsomet
Ġser
hip
Ġrun
Ġ:
Ġter
irect
Ġfollow
Ġdet
ices
Ġfind
12
Ġmem
Ġcr
ered
ex
Ġext
uth
ense
co
Ġteam
ving
ouse
ash
att
ved
Ġsystem
ĠAs
der
ives
min
Ġlead
ĠBl
cent
Ġaround
Ġgovern
Ġcur
velop
any
Ġcour
alth
ages
ize
Ġcar
ode
Ġlaw
Ġread
'm
con
Ġreal
Ġsupport
Ġ12
....
Ġreally
ness
Ġfact
Ġday
Ġboth
ying
Ġserv
ĠFor
Ġthree
Ġwom
Ġmed
ody
ĠThey
50
Ġexper
ton
Ġeach
akes
Ġche
Ġcre
ines
Ġrep
19
gg
illion
Ġgrou
ute
ik
We
get
ER
Ġmet
Ġsays
ox
Ġduring
ern
ized
ared
Ġfam
ically
Ġhapp
ĠIs
Ġchar
med
vent
Ġgener
ient
ple
iet
rent
11
ves
ption
Ġ20
formation
Ġcor
Ġoffic
ield
Ġtoo
ision
Ġinf
ĠZ
the
oad
Ġpublic
Ġprog
ric
**
Ġwar
Ġpower
view
Ġfew
Ġloc
Ġdifferent
Ġstate
Ġhead
'll
Ġposs
Ġstat
ret
ants
Ġval
Ġiss
Ġcle
ivers
anc
Ġexpl
Ġanother
ĠQ
Ġav
thing
nce
Wh
Ġchild
Ġsince
ired
less
Ġlife
Ġdevelop
ittle
Ġdep
Ġpass
ãĥ
Ġturn
orn
This
bers
ross
ĠAd
Ġfr
Ġresp
Ġsecond
oh
Ġ/
Ġdisc
Ġ&
Ġsomething
Ġcomple
Ġed
Ġfil
Ġmonth
aj
uc
Ġgovernment
Ġwithout
Ġleg
Ġdist
Ġput
Ġquest
ann
Ġprot
20
Ġnever
ience
Ġlevel
Ġart
Ġthings
Ġmight
Ġeffect
Ġcontro
Ġcent
Ġ18
Ġallow
Ġbelie
chool
ott
Ġincre
Ġfeel
Ġresult
Ġlot
Ġfun
ote
Ġty
erest
Ġcontin
Ġusing
Ġbig
201
Ġask
Ġbest
Ġ)
IN
Ġopp
30
Ġnumber
iness
St
lease
Ġca
Ġmust
Ġdirect
Ġgl
Ġ<
Ġopen
Ġpost
Ġcome
Ġseem
ording
Ġweek
ately
ital
Ġel
riend
Ġfar
Ġtra
inal
Ġpri
ĠUS
Ġplace
Ġform
Ġtold
":
ains
ature
ĠTrump
Ġstand
Ġ#
ider
ĠFr
Ġnext
Ġsoc
Ġpur
Ġlet
Ġlittle
Ġhum
Ġi
ron
15
Ġ15
Ġcommun
Ġmark
ĠThere
Ġwr
ĠThat
Ġinformation
ways
Ġbus
app
Ġinvest
me
Ġhard
ained
ead
Ġimport
Ġappro
Ġtest
Ġtri
Ġrest
osed
Ġfull
Ġcare
ĠSp
Ġcase
ON
Ġsk
Ġless
Ġ+
Ġpartic
ĠPl
ably
uck
ished
chn
be
Ġlist
ator
Ġtop
Ġadv
ĠBe
ruct
Ġdem
ration
ling
gy
reen
ger
Ġhome
Ġleft
Ġbetter
Ġdata
Ġ11
Ġattack
Ġproble
line
ards
Ġbeh
ral
ĠHow
ĠShe
arge
Ġ--
://
Ġbro
ĠPh
ats
Ġbuild
ww
ided
aim
ases
ency
Ġmain
ined
Ġincluding
Ġ{
Ġgot
Ġinterest
Ġkeep
ĠX
Ġeas
aining
Ġclass
âĢ¦
ĠNo
Ġvar
Ġsmall
ample
AT
Ġide
ĠSo
Ġrece
Ġpolit
Ġmov
Ġplan
Ġpercent
iving
Ġcamp
Ġpay
14
sc
ised
Ġunt
oney
ploy
====
Ġdidn
ĠInd
els
ertain
Ġpos
____
iver
Ġprocess
Ġprogram
ified
ĠRep
16
uro
ology
atter
ina
Ġname
ĠAll
Ġfour
Ġreturn
vious
bs
Ġcalled
Ġmove
ĠSc
ird
Ġgroup
Ġbre
Ġmen
Ġcap
ten
ee
Ġdri
leg
here
uthor
Ġpat
Ġcurrent
ides
Ġpop
to
ention
Ġalways
Ġmil
Ġwomen
Ġ16
Ġold
iven
raph
ĠOr
ror
ently
Ġnear
ĠEx
ream
sh
Ġ14
Ġfree
ission
stand
ĠCon
ality
used
13
Ġdesign
Ġchange
Ġchang
Ġbo
Ġvis
ember
Ġbook
ready
Ġkill
25
pped
Ġaway
Ġable
Ġcountry
Ġconst
arn
Ġorder
AR
ior
ium
orth
18
ailable
Ġsw
Ġmillion
Ġ13
atic
ted
ĠGo
Ġoper
eng
Ġthing
ajor
conom
ĠComm
Ġwhy
ured
ural
Ġschool
by
ĠMar
Ġaff
Ġdays
Ġann
ush
ane
If
eg
Ġprof
Ġhealth
outh
But
ional
.,
Ġsol
Ġalready
Ġ30
Ġcharact
He
Ġfriend
ES
ians
icle
'd
ĠOn
Ġleast
Ġprom
Ġdr
Ġhist
ither
Ġest
iqu
17
son
Ġtell
Ġtalk
ohn
oint
lection
AN
Ġuntil
augh
Ġlater
Ġve
Ġview
ending
ived
Ġword
ware
Ġcost
Ġenough
Ġgive
ĠUnited
Ġtechn
arent
OR
Ġpar
ĠDr
Ġ2016
rist
ering
ĠÂ
Ġlarge
side
acy
ccess
Ġwin
Ġimportant
Ġ199
Ġdoesn
Ġ17
Ġbusiness
Ġclear
Ġrese
",
ury
Ġequ
aster
alf
ĠAmerican
nect
Ġexpect
iversity
Ġocc
ĠFl
Ġkind
Ġmean
Ġpast
Ġdev
Ġbas
let
raft
Ġorgan
Ġdel
Ġperform
Ġstory
Ġseason
ĠCol
Ġclaim
Ġcame
Ġwithin
Ġline
Ġproject
ĠAt
Ġcontrol
ended
ĠSy
Ġair
ization
Ġ*
ley
Ġmoney
idd
You
for
Ġfamily
Ġmaking
Ġbit
Ġpolice
Ġhappen
Ġvers
ony
uff
ĠWhen
Ġsit
ideo
lf
ison
Ġsure
gin
Ġappear
Ġlight
Ġes
of
Ġwater
Ġtimes
not
Ġgrow
Ġcompany
ĠTe
ows
Ġmar
ource
iol
arm
br
Ġexample
Ġconc
Ġfore
ĠTo
pro
EN
ries
Ġ25
ĠCan
ney
Ġactually
Ġever
urity
aken
aps
Ġtax
Ġmajor
ama
Ġoften
eral
Ġhuman
Ġjob
ister
Ġavailable
ocr
enn
aid
ivid
Ġrecord
?"
Ġsing
ĠAm
idence
Ġnews
ster
Ġeconom
Ġfollowing
ĠBr
ising
Ġhour
most
ument
Ġsex
Ġdesc
Ġbecome
ĠEd
Ġtook
Ġhaving
Ġproduct
ault
As
aring
Ġmeans
Ġhop
une
Ġcho
Ġcertain
Ġnon
Ġdeal
24
lement
oci
ene
Ġside
ĠPr
ĠMay
Ġreason
ued
ched
ulation
Ġelect
Ġofficial
Ġpossible
Ġhold
ands
ots
Ġcity
ories
Ġsever
Ġchildren
Ġonce
Ġactiv
ler
Ġnight
itions
ĠJohn
ape
play
Ġdone
Ġlim
Ġworking
ĠPres
orld
eb
ĠCo
Ġbody
ails
utes
ĠMr
Ġwhether
Ġauthor
rop
Ġproper
Ġseen
);
Ġfac
ĠSu
Ġcond
iting
Ġcourse
Ġ}
----------------
aign
Ġevent
Ġeng
Ġpot
Ġintern
iam
Ġshort
empt
ãĤ
ĠGod
ilar
80
Ġorig
IS
ourn
ability
itive
Ġdam
Ġ100
Ġpress
Ġdoing
Ġprotect
ring
Ġthought
Ġquestion
rew
ĠWar
Ġseveral
ĠState
Ġgiven
Ġfund
ĠTw
Ġwent
ances
work
por
my
40
Ġarg
artment
ustom
Ġpolic
Ġmeet
Ġcreat
22
ĠStates
Ġgames
raw
uture
Ġunderstand
urs
ĠOb
lish
sy
Ġmakes
Ġwon
agon
Ġhtt
Ġlove
ential
Ġcomplete
par
ĠIm
AL
Ġaccount
Âł
ored
vert
Ġident
Ġ2015
Ġothers
ĠMin
iber
verage
There
itional
dd
Ġprob
Ġyoung
Ġalong
Ġaccording
Ġyet
Ġmembers
ĠWhat
oid
ĠMan
And
Ġamong
ai
Ġemploy
ĠRes
Ġ>
Ġinvol
Ġlow
af
ĠCar
Ġhig
ĠOne
ĠSec
ination
Ġlikely
Ġant
aged
ĠRuss
Ġben
Ġrele
For
back
ĠNot
Ġpresident
ball
Ġaccess
ividual
ĠDem
ĠEuro
60
Ġknown
irl
ĠGr
Ġearly
use
iety
âĢĵ
Ġfight
Ġsent
Ġtoday
Ġmarket
".
Ġbased
Ġstrong
urther
Ġdeb
mber
Ġproblem
Ġdeath
Ġsocial
imate
AS
ortun
Ġcampaign
ery
Ch
Ġey
ially
Ġmus
wh
pos
Ġer
Ġsaf
Ġmonths
iron
Ġviol
Ġfive
Ġstre
Ġplayers
inc
ald
year
aun
Ġsuccess
Ġpresent
erence
Ġ2014
Ġsugg
Ġparticular
Ġtry
Ġsuggest
ĠChrist
ones
Ġpriv
23
Ġcrit
Ġland
Ġlocal
ify
29
Ġaut
ED
ĠGu
Ġmult
Ġpolitical
Ġasked
Ġformer
itter
ript
Ġclose
Ġpract
ĠYork
Ġgetting
Ġacross
Ġcomb
Ġbelieve
Ġz
Ġtoget
Ġtogether
ĠCent
irc
Ġindividual
ĠMc
27
isk
ĠEng
Ġface
Ġ24
Ġvalue
Ġarea
ev
Ġwrit
ĠPresident
Ġvot
Ġkey
Ġmom
put
Ġanything
Ġexperience
attle
Ġmind
aff
omm
Ġfuture
ged
Ġcut
Ġtot
itch
Ġvideo
Ġinvestig
Ġnet
ĠMy
rict
ien
.)
Ġimpro
though
wards
Ġconnect
ĠMed
selves
ensive
mb
ober
ators
An
Ġ50
Ġredu
resent
Ġabove
Ġfre
ĠEurope
sw
Ġamount
ĠApp
Ġeither
Ġmilit
Ġanal
Ġfail
ĠEn
ales
Ġspecial
Ġblack
IT
cher
Ġlooking
Ġfire
yn
Ġalmost
oon
Ġstudy
Ġmiss
ches
rown
Ġtre
Ġcommunity
Ġmedia
Ġfood
Ġcomes
ĠUniversity
Ġsingle
What
uly
Ġhalf
ague
hod
ĠRepublic
Ġstarted
Ġquick
oto
book
Ġissue
itor
Ġelse
Ġconsider
26
rodu
Ġtaken
28
99
ĠWith
Ġtrue
Ġwa
Ġtrad
Ġago
Ġmess
ief
Ġadded
oke
Ġbad
Ġfav
33
Ġsimilar
ask
ĠDon
Ġcharacter
orts
ĠHouse
Ġreported
Ġtype
val
iod
ĠHowever
Ġtarg
Ġentire
pping
Ġhistory
Ġlive
ffic
........
ederal
Ġtrying
Ġdiscuss
ĠHar
aces
lished
Ġself
osp
rest
Ġroom
elt
Ġfall
olution
Ġet
Ġx
Ġisn
Ġidea
bo
Ġsound
ĠDep
Ġsomeone
cially
ully
Ġfoc
Ġobject
ift
aper
Ġplayer
Ġrather
Ġservice
ashing
ĠDo
ĠPart
rug
mon
ply
Ġmor
Ġnothing
Ġprovide
IC
ung
Ġparty
Ġexist
Ġmag
70
Ġrul
Ġhouse
Ġbehind
Ġhowever
ĠWorld
Ġsum
Ġapplic
Ġ;
Ġfunction
gr
ĠPol
Ġfront
200
Ġseries
Ġtem
Ġtyp
ills
Ġopt
Ġpoints
Ġbelow
itted
Ġspecific
Ġ2017
umb
Ġra
Ġprevious
Ġpret
reme
Ġcustom
Ġcourt
ĠMe
Ġrepl
Ġwhole
go
cer
Ġtreat
ĠAct
Ġprobably
Ġlearn
ender
ĠAss
Ġversion
now
Ġcheck
ĠCal
RE
minist
On
ources
Ġbenef
Ġdoc
Ġdeter
Ġenc
Ġsuper
Ġaddress
Ġvict
Ġ2013
Ġmeas
tr
Ġfield
When
Ġsignific
uge
Ġfeat
Ġcommon
load
Ġbegin
Ġbring
Ġaction
erman
Ġdescrib
Ġindust
Ġwanted
ried
ming
Ġattempt
45
fer
Ġdue
ression
##
Ġshall
Ġsix
oo
Ġstep
Ġpub
Ġhimself
Ġ23
Ġcop
Ġdest
Ġstop
AC
ibility
Ġlab
icult
Ġhours
Ġcreate
Ġfurther
ĠAmerica
ĠCity
Ġdou
head
ST
ĠNorth
cing
Ġnational
ule
ĠInst
Ġtaking
ĠQu
irt
Ġred
Ġresearch
viron
ĠGe
Ġbreak
ana
Ġspace
aterial
Ġrecent
ĠAb
Ġgeneral
Ġhit
Ġperiod
Ġeverything
ively
Ġphys
Ġsaying
anks
Ġcou
Ġcult
aced
eal
uation
Ġcoun
lu
Ġinclude
Ġposition
ĠAfter
ĠCanad
ĠEm
Ġimm
ĠRed
Ġpick
Ġcompl
Ġmatter
reg
ext
angu
isc
ole
aut
Ġcompet
eed
fect
Ġ21
ĠSen
ĠThese
asing
Ġcannot
Ġinit
Ġrelations
ached
Ġbar
Ġ40
ĠTH
Ġ2012
Ġvol
Ġground
Ġsecurity
Ġupd
ilt
35
Ġconcern
ĠJust
Ġwhite
Ġseems
ĠHer
pecially
ients
Ġannoun
Ġfig
ights
Ġstri
like
ids
Ġsus
Ġwatch
Ġâ
Ġwind
ĠCont
Ġitself
Ġmass
Al
yle
ique
ĠNational
Ġabs
Ġpack
Ġoutside
Ġanim
Ġpain
eter
Ġmanag
duct
ogn
Ġ]
ĠSept
sec
off
ĠJan
Ġfoot
ades
Ġthird
Ġmot
Ġevidence
inton
Ġthreat
apt
ples
cle
Ġlo
Ġdecl
Ġitem
medi
Ġrepresent
omb
amer
Ġsignificant
ograph
su
Ġcal
ires
0000
ID
AM
Ġsimply
Ġlonger
Ġfile
OT
che
So
ateg
org
ĠHis
Ġener
Ġdom
Ġupon
ili
":"
Ġthemselves
Ġcoming
Ġquite
Ġdifficult
ĠBar
ilities
rel
ends
cial
64
Ġwoman
rap
yr
Ġnecess
ips
Ġtext
Ġrequire
Ġmilitary
Ġreview
Ġrespons
75
Ġsubject
Ġinstead
Ġissues
Ġgen
","
Ġminutes
Ġweap
ray
amed
time
bl
How
Ġcode
ĠSm
Ġhigher
ĠSte
ris
Ġpage
Ġstudents
ĠIntern
Ġmethod
ĠAug
ĠPer
ĠAg
Ġpolicy
ĠSw
Ġexec
Ġaccept
ume
ribut
Ġwords
Ġfinal
Ġchanges
ĠDemocr
Ġfriends
Ġrespect
Ġep
Ġcompan
ivil
Ġdamage
****
ogle
vironment
Ġneg
ental
Ġap
Ġtotal
ival
!"
lim
Ġneeds
Ġagre
Ġdevelopment
Ġage
iple
21
Ġresults
ĠAf
Sh
Ġgun
ĠObama
roll
Ġ@
Ġrights
ĠBrit
Ġrunning
Ġwasn
Ġport
Ġrate
Ġpretty
Ġtarget
Ġsaw
Ġcirc
Ġworks
icro
alt
over
www
That
lier
Ġeveryone
ude
Ġpie
iddle
rael
Ġrad
Ġblock
Ġwalk
To
ãģ
nes
ĠAust
aul
rote
ĠSouth
ession
oph
Ġshows
Ġsite
Ġjo
Ġrisk
clus
lt
Ġinj
iding
ĠSpe
Ġchall
irm
Ġ22
itting
str
Ġhy
LE
key
Ġbegan
atur
ashington
lam
ĠDav
bit
Ġsize
ĠPar
38
ournal
face
Ġdecision
Ġlarg
Ġjud
rect
Ġcontinue
ĠOct
overed
ĠInt
========
Ġparent
ĠWill
Ġeasy
Ġdrug
anger
Ġsense
Ġdi
iday
Ġenergy
istic
Ġassoci
arter
obal
eks
ĠEl
urch
Ġgirl
oe
itle
Ġ28
ĠChe
Ġrequest
Ġsoon
Ġhost
ky
Ġstates
omes
Ġmaterial
lex
Ġmoment
Ġansw
onse
Ġespecially
Ġnorm
Ġservices
pite
ran
Ġrole
44
):
Ġcred
Cl
________
Ġmat
Ġlog
ĠClinton
OU
Ġoffice
Ġ26
Ġcharg
Ġtrack
ma
Ġheart
Ġball
Ġpersonal
Ġbuilding
na
set
body
ĠBlack
Ġincrease
itten
Ġneeded
36
32
="
Ġlost
Ġbecame
Ġgroups
ĠMus
Ġwrote
ĠPe
Ġprop
joy
Ã©
ĠWhite
Ġdead
.'
Ġhttp
Ġwebs
OS
Ġinside
Ġwrong
Ġstatement
Ġ...
yl
Ġfilm
Ġmusic
Ġshare
ification
Ġrelease
Ġforward
Ġstay
Ġcomput
itte
ser
Ġoriginal
Ġcard
Ġcand
Ġdiv
atural
Ġfavor
OM
Ġcases
uses
Ġsection
Ġleave
ging
oved
ĠWashington
39
ĠGl
Ġrequired
action
apan
oor
iter
ĠKing
Ġcountries
ĠGerman
lling
Ġ27
34
Ġquestions
Ġprim
Ġcell
Ġshoot
Ġanyone
ĠWest
Ġaffect
epend
Ġonline
ĠIsrael
ĠSeptember
Ġability
Ġcontent
ises
Ġreve
Ġlaun
Ġindic
Ġforce
cast
Ġsold
aving
fl
Ġsoft
Ġcompanies
ceed
Ġarticle
Ġaud
Ġrev
Ġeduc
Ġplaying
05
Ġheld
ctor
Ġreleased
Ġfederal
37
Ġadminist
Ġinterview
Ġinstall
Ġreceived
Ġsource
uk
Ph
Ġserious
Ġcreated
Ġcause
Ġimmedi
Ġdefin
uel
ĠDepartment
ctions
ĠCour
ĠNow
ze
ites
itution
Ġlate
Ġspeak
ners
Ġlegal
ari
ĠCor
Ġweeks
Ġmodel
Ġpred
Ġexact
BC
ĠBy
ING
osing
Ġtakes
Ġregard
Ġopportun
Ġprice
Ġ198
ĠApr
fully
Ġord
Ġproblems
ruction
ham
ĠCount
lege
Ġleaders
ET
lev
Ġdeep
ological
ese
haps
ĠSome
Ġpers
Ġcontract
Ġrelationship
sp
oud
Ġbase
48
mit
Ad
ancial
Ġconsum
Ġpotential
Ġlangu
rem
eth
Ġrelig
ressed
66
Ġlink
Ġlower
ayer
ĠJune
Ġfem
unt
erc
urd
Ġcontact
Ġill
Ġmother
Ġestab
htt
ĠMarch
ĠBro
ĠChina
Ġ29
Ġsqu
Ġprovided
Ġaverage
asons
Ġ2011
Ġexam
lin
55
ned
Ġperfect
Ġtou
alse
ux
Ġbuy
Ġshot
Ġcollect
Ġphot
Ġplayed
Ġsurpr
Ġofficials
Ġsimple
avy
Ġindustry
Ġhands
ground
Ġpull
Ġround
Ġuser
Ġrange
uary
Ġprivate
ops
ees
Ġways
ĠMich
Ġveh
Ġexcept
Ġterms
imum
pper
ION
ores
ĠDragon
oul
Ġden
Ġperformance
Ġbill
cil
47
Ġenvironment
Ġexc
add
Ġworth
Ġpict
Ġchance
Ġ2018
bor
Ġspeed
iction
Ġalleg
ĠJapan
atory
reet
Ġmatch
ĠII
Ġstru
order
Ġste
Ġliving
Ġstruct
ino
Ġsepar
hern
Ġresponse
Ġenjoy
Ġvia
AD
uments
acebook
Ġmember
ibr
izing
Ġtool
ĠMon
ĠWhile
hood
ĠAng
ĠDef
Ġoffer
Tr
aur
Ġturned
ĠJuly
down
anced
Ġrecently
ĠEar
Ġce
ĠStar
ĠCong
rought
Ġblood
Ġhope
Ġcomment
aint
Ġarri
iles
Ġparticip
ought
ription
08
49
Ġgave
Ġselect
Ġkilled
sych
Ġgoes
ij
Ġcoll
Ġimpact
atives
ĠSer
09
ĠAugust
Ġboy
de
ĠDes
Ġfelt
US
Ġexpected
Ġimage
ĠMark
ccording
oice
EC
ĠMag
ened
hold
ĠPost
Ġprevent
No
Ġinvolved
Ġeyes
Ġquickly
At
unk
Ġbehav
Ġur
Ġled
come
ey
Ġcandid
Ġearlier
Ġfocus
ety
Pro
ledge
ixed
illed
Ġpopular
AP
Ġsett
light
Ġvarious
inks
Ġlevels
Ġroad
ellig
ables
hel
ittee
ĠGener
ype
Ġheard
icles
Ġmis
Ġusers
ĠSan
Ġimprove
Ġfather
Ġsearch
They
vil
Ġprofess
Ġknew
Ġloss
Ġevents
65
Ġbillion
07
02
ĠNews
ĠAM
Ġcover
where
ension
Ġbott
Ġareas
ences
ope
ĠTwitter
ael
Ġgets
ĠGoogle
Ġsn
iant
Ġvote
Ġnearly
Ġincluded
Ġrecogn
zz
mm
aled
Ġhappened
04
Ġhot
Ġwhose
Ġcivil
Ġsuff
oes
itiz
ĠSyri
Ġrespond
Ġhon
Ġfeatures
Ġeconomic
ĠApril
rim
Ġtechnology
Ġoption
aging
Ġpurch
Re
Ġlat
chie
isl
Ġrecomm
uf
Ġtraining
Ġeffects
Ġfast
Ġ2010
Ġoccur
Ġwebsite
Ġemail
Ġsens
ech
Ġoil
Ġinflu
Ġcurrently
ĠSch
ĠAdd
Ġgoal
Ġscient
Ġconv
100
emy
Ġdecided
Ġtravel
Ġmention
LL
03
Ġelection
Ġphone
Ġlooks
Ġsituation
Ġcy
Ġhor
bed
ĠCourt
aily
aves
Ġquality
ĠComp
wise
Ġtable
Ġstaff
ĠWind
ett
Ġtried
idered
Ġaddition
Ġbox
Ġlack
arily
Ġwide
Ġmid
Ġboard
ysis
Ġanti
ha
Ġdig
ening
Ġdro
Con
68
Ġslow
based
sequ
Ġpath
Ex
aker
Ġworked
Ġpen
Ġengine
Ġlooked
ĠSuper
ĠServ
Ġvictim
Un
Ġproperty
Ġintrodu
Ġexecut
ĠPM
Le
Ġcolor
ĠMore
Ġ60
Ġnetwork
Ġdate
cul
idge
Ġextra
31
Ġsle
67
Ġwond
Ġreports
just
ĠAustral
Ġcapital
Ġens
Ġcommand
Ġallowed
Ġprep
Ġcapt
hib
Ġnumbers
chan
Ġfair
mp
oms
Ġreach
With
tain
Ġbroad
Ġcouple
ecause
lying
ĠFeb
Ġscreen
Ġlives
Ġprior
ĠCongress
Ar
Ġapproach
Ġemer
aries
ĠDis
serv
ĠNe
Ġbuilt
cies
Ġrepe
Ġrules
force
ĠPal
Ġfinancial
Ġconsidered
ĠChar
nces
ĠIS
Ġbrought
Ġbi
iers
ĠSim
OP
Ġproducts
Ġvisit
Ġdocument
Ġconduct
Ġcompletely
ining
ĠCalif
ibly
Ġwritten
ĠTV
ements
Ġdraw
One
Ġpublished
Ġsecret
rain
het
ĠFacebook
onday
ĠUp
Ġsexual
Ġthous
ĠPat
Ġess
Ġstandard
Ġarm
ges
ection
Ġfell
Ġforeign
ani
ĠFriday
Ġregular
inary
Ġincreased
Ġusually
Ġdemon
Ġdark
Ġadditional
rol
ĠOf
Ġproduction
!!
undred
Ġinternational
idents
ĠFree
roup
Ġrace
Ġmach
Ġhuge
All
lear
ovember
Ġtown
Ġattention
ĠOff
yond
ĠThen
field
Ġterror
raz
ĠBo
Ġmeeting
ĠPark
Ġarrest
Ġfear
Ġaw
ĠVal
oring
',
Ġextreme
arr
Ġworkers
After
Ġ31
net
ament
Ġdirectly
Ġpopulation
ube
ĠOctober
ĠIN
ĠJanuary
59
ĠDavid
Ġcross
cember
ĠFirst
Ġmessage
irit
Ġnation
Ġpoll
isions
Ġanswer
ny
isode
Ġcarry
ĠRussia
Ġhear
ength
roy
Ġnatural
inally
Ġdog
mitted
Ġtrade
Ġsubst
Ġmultiple
ĠAfric
Ġfans
Ġsort
Ġglobal
ication
ĠWed
ara
Ġachie
Ġlanguage
vey
Ġtal
Ġnecessary
Ġdetails
Ġsen
ĠSund
ĠReg
ĠRec
06
Ġsil
ressive
Ġmedical
unch
ornia
Ġund
fort
ocks
ĠMonday
uesday
craft
77
urt
Ġver
ĠHill
Ġreceive
Ġmorning
estern
Ġbank
Ġsat
irth
ĠHigh
Ġdevice
ĠTHE
ĠCenter
Ġsafe
Ġple
ĠCanada
Ġsystems
Ġassist
Ġsurv
Ġbattle
ĠSoc
vertis
She
Ġpaper
Ġgrowth
Ġcast
Sc
Ġplans
lled
Ġparts
Ġwall
Ġmovement
Ġpractice
imately
Ġdisplay
Ġsometimes
omp
ĠPaul
ĠYes
king
58
oly
Ġson
Ġavoid
okes
ĠJew
Ġtowards
asc
Ġ//
ĠKore
Ġtalking
Ġcorrect
Ġspent
icks
iable
eared
Ġterm
Ġwants
oming
Ġut
Ġdoub
Ġforces
Ġplease
69
ĠNovember
atform
ondon
Ġones
Ġimmediately
ĠRussian
ĠMet
Ġdeg
Ġparents
CH
ĠAmericans
aly
ĠMod
Ġshown
Ġconditions
Ġstuff
Ġreb
ĠYour
Ġincludes
nown
ĠSam
Ġexperien
mission
ĠEven
aught
Ġannounced
ĠRepublican
Ġdetermin
Ġdescribed
ĠCounty
()
Ġdoor
Ġchanged
Ġneigh
ĠHere
Ġclean
Ġpan
ĠDecember
ĠEuropean
iring
apter
Ġclub
ĠTuesday
Ġpaid
ĠNet
Ġattacks
Ġcharacters
Ġalone
Ġdirector
dom
Ġ35
Ġload
Ġrout
ĠCalifornia
Ġfinally
Ġrac
Ġcontr
Ġexactly
resh
pri
ĠIslam
Ġnature
Ġcareer
Ġlatest
Ġconvers
ĠSl
pose
cient
ĠInc
ivity
88
ĠAtt
ĠMor
nesday
Ġweight
ken
Ġnote
Ġteams
Ġ\
airs
ĠGreen
Ġhundred
onent
Ġstreng
Ġconsist
icated
Ġregul
Ġlic
astic
Ġten
ursday
elligence
ously
ĠUK
BI
Ġcosts
Ġindepend
ĠAP
Ġnormal
Ġhom
Ġobvious
Ġswe
Ġstar
Ġready
acher
Ġimplement
gest
Ġsong
ĠGet
ĠLab
Ġinteresting
using
Ġgiving
ĠSunday
Ġetc
Ġmiddle
Ġremember
right
osition
utions
Ġmax
46
Ġyourself
Ġdemand
Ġtreatment
Ġdanger
ĠCons
Ġguy
ĠBritish
Ġphysical
Ġrelated
Ġremain
Ġcouldn
Ġrefer
Ġcitiz
box
ENT
board
Ġinn
IG
ero
ĠStreet
ospital
rench
chers
Ġstra
OL
ager
ĠAN
Ġeasily
IA
enge
iny
Ġclos
ocked
Ġuses
ĠCoun
Im
uild
??
more
Ġang
Ġwrite
olute
57
Ġleader
Ġreading
</
Ġautom
ests
43
Ġlegisl
ĠGold
Ġdesigned
ĠST
ĠLeg
ares
Ġbeaut
ĠTex
Ġappears
Ġstrugg
ĠRom
Ġ00
Ġchoice
Ġparticularly
ĠFrom
oper
ĠLondon
anned
Ġallows
obile
Ġdifference
âĢ¢
ĠView
ĠWednesday
Ġalthough
Ġrelative
Ġapplication
atever
Ġaren
Ġmyself
Ġimag
Ġdise
Ġsociety
Ġfrequ
ĠEnglish
Ġpoor
ĠDay
Ġwriting
Ġseven
Ġstarting
Ġbud
Ġprint
ĠTrans
ufact
ĠStud
new
Ġcrim
Ġgives
Ġcool
ae
iance
ĠGeneral
Ġthinking
Ġsave
Ġlimited
ĠParty
Ġmeaning
pen
owers
ĠJack
EM
Ġnice
rupt
Ġgas
Ġeight
Ġfeet
Ġeffort
Ġign
icit
Bl
coin
Ġopin
Ġbrain
While
hest
ĠThursday
Ġwouldn
aughter
Ġtouch
lements
Ġstudies
Ġcenter
cont
orge
Ġcomputer
Ġinvestigation
Pl
orks
Ġ2008
Ġincreasing
Ġstore
Ġcomments
Ġbal
men
Ġdoll
Ġliber
Ġwife
Ġlaws
aturday
itness
Ġmodern
ĠSk
Ġadministration
Ġopportunity
Ġsal
Ġpowerful
My
Ġclaims
ĠEarth
ords
Ġtitle
Ġesc
name
Not
omen
Ġbeyond
Ġcamer
Ġsell
itute
earch
Ġappl
iment
42
ĠArt
Ġunf
Ġviolence
urg
ĠEast
Ġcompared
Ġoptions
Ġthroughout
Ġvs
igr
.[
aches
78
Ġfiles
FL
EL
arian
ĠJames
ĠAir
anch
Ġdetail
Ġpiece
PS
Ġnamed
Ġeducation
Ġdrive
Ġitems
Ġstudent
iced
::
ico
Ġthrow
Ġscene
Ġcomplex
Ġ2009
Ġprec
ĠBre
79
Ġconcept
Ġstatus
aming
Ġdied
Ġknowledge
Ġbeginning
OD
ruary
Ġcertainly
Ġguys
Ġslight
inn
ounds
Ġfine
Ġfat
ications
Ġperhaps
ĠAnt
Ġincome
Ġhttps
Ġmajority
ports
ston
Ġgreater
Ġfeed
entially
Ġsafety
Ġunique
andom
Ġgone
Ġshowed
Ġhistor
Ġcounter
ius
ida
Ġleading
ipe
Ġsend
ĠDonald
erve
Ġdefense
inese
Ġyes
ĠFire
ĠMuslim
raq
Ġcontinued
osh
Ġprovides
Ġprison
ĠPre
Ġhappy
Ġeconomy
Ġtrust
ags
ĠGame
Ġweapons
uman
ĠCle
itation
Ġanalysis
ĠTimes
Ġscience
->
Ġfigure
Ġdisapp
enty
Ġsoftware
Ġult
Ġofficers
New
Is
Ġremains
ĠIndia
Ġpsych
rief
Ġcat
esc
Ġobserv
Ġstage
ĠDark
Ġenter
change
Ġpassed
Ġdespite
ĠOut
Ġmovie
rs
Ġvoice
mine
ĠPlay
Ġtoward
ĠTer
Ġregion
Ġvalues
orters
Ġmount
Ġofficer
ĠOther
ban
Ġhous
wood
room
IV
ĠSun
see
ĠOver
rog
90
Ġlay
ĠTur
awn
Ġpressure
ĠSub
Ġbooks
edom
ĠSand
AA
ago
Ġreasons
ford
Ġactivity
UT
Now
ĠSenate
cell
night
Ġcalls
inter
Ġletter
ĠRob
ĠJe
Ġchoose
ĠLaw
Get
Be
Ġrob
Ġtypes
Ġplatform
Ġquarter
RA
ĠTime
Ġmaybe
ĠCr
95
pre
Ġmoving
Ġlif
Ġgold
Ġsom
Ġpatients
Ġtruth
ĠKe
urance
antly
mar
Ġcharge
ĠGreat
Ġcele
--------------------------------
Ġrock
roid
ancy
Ġcredit
aud
By
ĠEvery
Ġmoved
inger
ribution
Ġnames
Ġstraight
ĠHealth
ĠWell
Ġfeature
Ġrule
Ġsche
inated
ĠMichael
berg
41
iled
band
Ġclick
ĠAngel
onents
ÂŃ
ĠIraq
ĠSaturday
Ġaware
part
Ġpattern
OW
ĠLet
Ġgrad
igned
Ġassociated
Ġstyle
no
iation
aith
ilies
Ġstories
uration
Ġindividuals
ĠâĢ¦
miss
ĠAssoci
ishing
aby
Ġsummer
ĠBen
Ġ32
Ġarch
uty
ĠTexas
hol
Ġfully
Ġmill
Ġfollowed
ĠBill
ĠIndian
ĠSecret
ĠBel
ĠFebruary
Ġjobs
Ġseemed
ĠGovern
ipped
Ġreality
Ġlines
Ġpark
Ġmeasure
ĠOur
IM
Ġbrother
Ġgrowing
Ġban
Ġestim
Ġcry
ĠSchool
Ġmechan
ĠOF
ĠWindows
Ġrates
ĠOh
Ġpositive
Ġculture
istics
ica
Ġhar
ya
itely
ipp
Ġmap
encies
ĠWilliam
II
akers
56
ĠMart
ĠRem
Ġaltern
itude
Ġcoach
rowd
Don
Ġkids
Ġjournal
Ġcorpor
Ġfalse
Ġweb
Ġsleep
Ġcontain
Ġsto
Ġbed
iverse
ĠRich
ĠChinese
Ġpun
Ġmeant
known
Ġnotice
Ġfavorite
aven
Ġcondition
Ġpurpose
))
Ġorganization
Ġchalleng
Ġmanufact
Ġsusp
ĠAc
Ġcritic
unes
uclear
Ġmer
vention
Ġ80
Ġmist
ĠUs
ĠTor
http
olf
Ġlarger
Ġadvant
Ġresear
Ġactions
ml
Ġkept
Ġaim
,'
col
Ġbenefits
ifying
Ġactual
ĠInternational
Ġvehicle
Ġchief
Ġefforts
ĠLeague
ĠMost
Ġwait
Ġadult
Ġoverall
Ġspeech
Ġhighly
Ġfemale
Ġerror
Ġeffective
54
Ġencour
well
Ġfailed
Ġconserv
Ġprograms
Ġtrou
Ġahead
500
vertisement
IP
ĠFound
pir
Ġ%
Ġcrime
ander
Ġlocation
ĠIran
Ġbehavior
azing
Ġrare
Ġemb
Ġcaused
Ġship
Ġactive
Ġcontribut
Ġgreen
Ġacqu
Ġreflect
venue
Ġfirm
Ġbirth
].
Ġclearly
Ġemot
Ġagency
riage
Ġmemory
98
SA
ĠSee
acing
CC
Ġbiggest
Ġrap
Ġbasic
Ġband
eat
Ġsuspect
ĠMac
Ġ90
mark
istan
Ġspread
ams
ki
asy
rav
ĠRober
Ġdemonstr
rated
Ġabsolute
Ġplaces
Ġimpl
ibrary
Ġcards
Ġdestroy
Ġvirt
vere
Ġappeared
yan
point
Ġbeg
Ġtemper
spe
anted
ears
ĠDirect
Ġlength
Ġblog
amb
Ġinteg
Ġresources
acc
iful
Ġspot
Ġforced
Ġthousands
ĠMinister
Ġqual
ĠFrench
atically
Ġgenerally
Ġdrink
Ġthus
IL
odes
Ġappropri
ĠRead
Ġwhom
Ġeye
Ġcollege
Ġ45
irection
Ġensure
Ġapparent
iders
Ġreligious
Ġminor
olic
Ġtro
ĠWhy
ribute
met
Ġprimary
Ġdeveloped
Ġpeace
Ġskin
ste
ava
Ġblue
Ġfamilies
Ġir
Ġapply
Ġinform
ĠSmith
CT
ii
Ġlimit
Ġresist
................
umn
Ġconflic
Ġtwe
udd
ĠTom
Ġliter
que
bon
Ġhair
Ġeventually
Ġpus
Ġhelped
Ġagg
orney
ĠApple
Ġfit
ĠSur
Ġprem
Ġsales
Ġseconds
Ġstrength
Ġfeeling
¿½
Ġtour
Ġknows
oom
Ġexerc
Ġsomew
ï¿½
>>
Ġspokes
Ġideas
Ġregist
soft
ĠDel
ĠPC
Ġpropos
Ġlaunch
Ġbottom
TH
ĠPlease
vest
itz
ĠInter
Ġscript
Ġrat
arning
Ġil
ĠJer
ĠAre
Ġwhatever
oken
cience
Ġmode
Ġagree
Ġsources
Ġinitial
Ġrestrict
Ġwonder
usion
####
ĠSil
ville
Ġburn
tw
asion
ĠÂ£
Ġnor
uing
Ġreached
Ġsun
Ġcateg
igration
Ġcook
Ġpromot
Ġmale
Ġclimate
Ġfix
Ġalleged
UR
alled
Ġimages
Cont
ota
Ġschools
ios
Ġdrop
Ġstream
ĠMo
Ġpreviously
aling
Ġpet
Ġdouble
Ġ(@
annel
Ġdefault
ties
Ġrank
ĠDec
ĠCouncil
Ġweapon
Ġstock
Ġanaly
ĠStr
Ġpicture
ĠPolice
ference
Ġcentury
Ġcitizens
Ġonto
Ġexpand
Ġhero
ĠSol
Ġwild
Ġupdate
Ġcustomers
ront
def
Ġlik
Ġcriminal
ĠChristian
SP
76
Ġleaving
Ġotherwise
ĠDist
Ġbasis
52
53
icip
ĠBer
Ġrecommend
Ġfloor
Ġcrowd
oles
Ġ70
Ġcentral
ĠEv
Ġdream
Ġdownload
Ġconfir
ĠThom
Ġwindow
Ġhappens
Ġunit
Ġtend
Ġspl
Ġbecomes
Ġfighting
Ġpredict
ĠPress
ĠPower
Ġheavy
aked
Ġfan
orter
ategy
BA
izes
Ġspend
Here
Ġ2007
Ġadop
ĠHam
Ġfootball
ĠPort
oday
51
ampions
Ġtransfer
ht
Ġ38
term
acity
Ġbur
],
ternal
rig
but
Ġtherefore
ĠBecause
resp
rey
Ġmission
Some
Ġnoted
Ġassum
Ġdisease
Ġedit
Ġprogress
rd
ĠBrown
ocal
Ġadding
Ġraised
ĠAny
Ġtick
Ġseeing
ĠPeople
Ġagreement
Ġserver
Ġwat
Ġdebate
Ġsupposed
iling
Ġlargest
Ġsuccessful
ĠPri
ĠDemocratic
Ġjump
ĠSyria
Ġowners
Ġoffers
Ġshooting
Ġeffic
sey
Ġhaven
verse
tered
ĠLight
imal
ĠBig
Ġdefend
Ġbeat
Ġrecords
%)
Ġscen
Ġemployees
Ġdevices
hem
Ġcommer
ĠMex
Ġbenefit
ĠProf
Ġilleg
Ġsurface
ĠAlso
Ġharm
ingly
wide
ĠAlex
Ġshut
ĠCur
Ġlose
pm
Ġchallenge
semb
Ġstation
Ġintelligence
Ġaccur
ĠFlor
Ġrequires
ĠMal
bum
Ġhospital
Ġspirit
Ġoffered
Ġproduce
ĠCommun
Ġcreating
Ġcris
spect
Ġended
Ġdaily
Ġvoters
lands
ias
ih
ona
Ġsmart
ĠOffice
ĠLord
rial
ĠInternet
Ġcircum
Ġextremely
'.
Ġopinion
ĠMil
Ġgain
BS
ĠFin
yp
Ġuseful
Ġbudget
Ġcomfort
isf
Ġbackground
eline
Ġepisode
Ġenemy
Ġtrial
Ġestablish
date
ĠCap
Ġcontinues
Ġshowing
ĠUnion
with
Ġposted
ĠSystem
Ġeat
rian
Ġrise
ĠGermany
ils
Ġsigned
Ġvill
Ġgrand
mor
ĠEngland
Ġprojects
umber
Ġconference
za
Ġresponsible
ĠArab
Ġlearned
âĢĶâĢĶ
ipping
ĠGeorge
OC
Ġreturned
ĠAustralia
Ġbrief
Qu
Ġbrand
illing
abled
Ġhighest
Ġtrain
ĠCommission
while
Ġnom
ception
Ġmut
ĠBlue
Ġincident
vant
86
ĠID
Ġnuclear
74
ĠLike
ĠRE
ĠMicro
li
mail
Ġcharges
89
Ġadjust
ado
Ġearth
NA
Ġprices
PA
Ġdraft
Ġruns
Ġcandidate
enses
Ġmanagement
ĠPhil
ĠMiss
Ġteach
gram
Ġunderstanding
ait
icago
Add
ĠEp
secut
Ġseparate
Ġinstance
Ġeth
Ġunless
********
ĠFore
inate
Ġoperations
Sp
Ġfaith
gar
ĠChurch
ronic
Ġconfig
osure
Ġactivities
Ġtraditional
Ġ36
Ġdirection
Ġmachine
Ġsurround
Ġpush
unction
ĠEU
Ġeasier
Ġargument
GB
Ġmicro
Ġspending
izations
Ġtheory
adow
Ġcalling
ĠLast
Ġder
Ġinfluence
Ġcommit
Ġphoto
Ġunc
istry
gn
aste
acks
Ġdisp
ady
do
ĠGood
Ġ`
Ġwish
Ġrevealed
ÂłÂł
lig
Ġenforce
ĠCommittee
Ġchem
Ġmiles
Ġinterested
Ġsolution
icy
inct
Ġ->
ĠDet
Ġremoved
Ġcompar
eah
Ġplant
ĠSince
Ġachieve
Ġadvantage
Ġslightly
bing
Ġplaced
under
2015
ĠMad
Ġtim
oses
Ġcru
ĠRock
Ġmostly
Ġnegative
Ġsetting
Ġproduced
Ġmur
Ġconnection
ĠMer
Ġdriver
Ġexecutive
Ġassault
Ġborn
ĠVer
tained
Ġstructure
Ġreduce
Ġdecades
Ġded
uke
ĠMany
idden
Ġleague
Se
Ġjoin
Ġdisco
Ġdie
cks
actions
Ġassess
agn
Ġgoals
ours
IR
Ġsenior
iller
mod
ipment
ocol
uy
ĠQue
Ġparties
irgin
Ġlearning
itable
Ġstreet
Ġcamera
App
Ġskills
bre
cious
Ġcelebr
ĠFranc
Ġexisting
Ġwilling
lor
Ġid
ĠSpace
Ġcritical
ĠLa
ortunately
Ġserve
Ġcold
Ġspecies
TS
Ġanimals
ĠBay
Ġolder
ĠUnder
estic
ĠTre
Ġteacher
Ġprefer
vis
Ġthread
ĠMatt
Ġmanager
ãĥ»
Ġprofessional
ĠVol
Ġnotes
These
ula
Ġfresh
ented
uzz
edy
clusion
ĠRel
Ġdoubt
EO
Ġopened
ĠBit
Advertisement
Ġguess
ĠUN
Ġsequ
Ġexplain
otten
Ġattract
aks
Ġstring
Ġcontext
ossible
ĠRepublicans
Ġsolid
Ġcities
Ġasking
Ġrandom
ups
uries
arant
dden
gl
ĠFlorida
Ġdepend
ĠScott
Ġ33
ĠiT
icon
Ġmentioned
Ġ2000
Ġclaimed
Ġdefinitely
ulf
Ġcore
Ġopening
ĠConst
which
ĠTra
AG
72
Ġbelieved
ada
Ġ48
ĠSecurity
yright
ĠPet
ĠLou
Ġholding
================
Ġice
Ġbrow
Ġauthorities
host
word
Ġscore
ĠDiv
Ġcells
Ġtransl
Ġneighbor
Ġremove
uct
Ġdistrict
ĠAccording
Ġworse
Ġconcerns
Ġpresidential
Ġpolicies
ĠHall
73
Ġhus
AY
Ġ2006
ĠJud
Ġindependent
ĠJustice
iliar
print
ighter
Ġprotection
zen
Ġsudden
house
ĠJes
PR
ĠInf
Ġbul
Ġ_
ĠService
ĠPR
Ġstrategy
ffect
Ġgirls
Ġmissing
oyal
ĠTeam
ulated
Ġdat
Ġpolitics
abor
According
Ġspell
Ġgraph
orthern
TC
Ab
Ġlabor
isher
Ġkick
ĠiTunes
Ġsteps
poses
Ġsmaller
En
bert
Ġroll
Ġresearchers
Ġclosed
Ġtransport
Ġlawy
________________
ĠChicago
Ġaspect
Ġnone
Ġmarriage
96
Ġelements
ĠFre
ĠSal
Ġdram
FC
top
equ
Ġhearing
Ġsupported
Ġtesting
cohol
Ġmassive
Ġstick
Ġguard
isco
phone
From
However
Ġborder
Ġcopy
ography
list
71
Ġowner
class
ruit
rate
ĠOnce
Ġdigital
Ġtask
ERS
Ġincred
tes
++
ĠFrance
Ġbreat
owl
Ġissued
ĠWestern
Ġdetect
Ġpartners
Ġshared
ĠCall
Ġcancer
ache
ribe
Ġexplained
Ġheat
{"
Ġinvestment
ĠBook
Ġwood
Ġtools
ĠAlthough
Ġbelief
Ġcrisis
Ġge
ĠMP
Ġoperation
type
~~
ga
Ġcontains
anta
Ġexpress
ĠGroup
ĠJournal
ka
Ġamb
ĠUSA
Ġfinding
Ġfunding
how
Ġestablished
ideos
Ġdegree
Ġdangerous
anging
Ġfreedom
pport
outhern
Ġchurch
Ġcatch
ĠTwo
Ġpresence
ĠGuard
Up
Ġauthority
ĠProject
Ġbutton
Ġconsequ
Ġvalid
Ġweak
Ġstarts
Ġreference
ĠMem
")
UN
orage
ĠOpen
Ġcollection
ym
gency
Ġbeautiful
ros
Ġtells
Ġwaiting
nel
Ġproviding
ĠDemocrats
Ġdaughter
Ġmaster
Ġpurposes
ĠJapanese
Ġequal
Ġturns
Ġdocuments
Ġwatching
Res
Ġran
2014
Ġreject
ĠKorea
Ġvictims
Level
erences
Ġwitness
Ġ34
Ġreform
coming
Ġoccup
Ġcaught
Ġtraffic
ading
Ġmodels
ario
Ġserved
Ġbatter
uate
ĠSecretary
Ġagreed
Ġtruly
ynam
ĠRet
Ġunits
ĠResearch
hand
azine
ĠMike
Ġvariety
otal
Ġamazing
Ġconfirmed
Ġentirely
Ġpurchase
Ġelement
Ġcash
Ġdetermine
De
Ġcars
ĠWall
âĸ
Ġviews
Ġdrugs
Ġdepartment
ĠStep
uit
Ġ39
asure
ĠClass
Ġcovered
ĠBank
Ġmere
uana
Ġmulti
Ġmix
Ġunlike
levision
Ġstopped
Ġsem
ĠGal
ules
Ġwel
ĠJohnson
la
Ġskill
Ġbecoming
rie
Ġappropriate
fe
ellow
ĠProt
ulate
ocation
Ġweekend
odies
Ġsites
Ġanimal
ĠTim
Ġscale
Ġcharged
Ġinstruct
illa
Ġmethods
Ġcert
Ġjudge
ĠHel
Ġdollars
Ġstanding
ĠSqu
Ġdebt
liam
Ġdriving
ĠSum
ĠEdition
Ġalbum
andon
IF
ĠUk
63
ader
Ġcommercial
esh
ĠGovernment
Ġdiscovered
Ġoutput
ĠHillary
ĠCarol
Ġ2005
Ġabuse
ancing
Ġswitch
Ġannual
Tw
Ġstated
agement
inner
Ġdemocr
Ġresidents
Ġallowing
Ġfactors
odd
Ġfuck
emies
Ġoccurred
oti
Ġnorth
ĠPublic
Ġinjury
Ġinsurance
CL
olly
ãĢ
Ġrepeated
Ġarms
anged
Ġconstruction
Ġfle
PU
icians
Ġforms
ĠMcC
antic
Ġmental
pire
Ġequipment
Ġfant
Ġdiscussion
Ġregarding
kin
arp
Ġchair
ogue
Ġproceed
ĠId
Our
Ġmurder
Man
Ġ49
asp
Ġsupply
Ġinput
Ġwealth
liament
Ġproced
orial
ĠStat
ĠNFL
hens
ĠInstitute
Ġputting
ournament
etic
Ġlocated
Ġkid
eria
run
Ġprinc
Ġ!
going
ĠBet
Ġclot
Ġtelling
Ġproposed
iot
orry
Ġfunds
gment
ĠLife
Ġbaby
ĠBack
Ġspoke
Image
Ġearn
ĠAT
gu
Ġexchange
ĠLin
oving
Ġpair
More
azon
Ġarrested
Ġkilling
can
ĠCard
yd
Ġidentified
Ġmobile
Ġthanks
onym
ĠForm
Ġhundreds
ĠChris
ĠCat
Ġtrend
hat
ĠAv
oman
Ġelectric
ĠWil
SE
Of
Ġrestaur
oted
Ġtrig
Ġnine
Ġbomb
Why
Â¯
Ġcoverage
Ġappeal
ĠRobert
ĠSup
Ġfinished
Ġflow
Ġdeliver
Ġcalcul
Ġphotos
Ġphil
Ġpieces
Ġappre
kes
Ġrough
Do
Ġpartner
Ġconcerned
Ġ37
ĠGen
Col
ctors
Ġ=>
state
Ġsuggested
ĠForce
CE
Ġherself
ĠPlan
works
ooth
rency
Ġcorner
Ġhusband
Ġinternet
ĠAut
ems
osen
ĠAtl
gen
Ġbalance
62
Ġsounds
text
Ġarr
oves
Ġmillions
Ġradio
Ġsatisf
ĠDam
Mr
Go
Spe
Ġcombat
rant
ĠGree
Ġfuel
Ġdistance
Ġtests
Ġdecre
ĠEr
Ġmanaged
DS
Ġtit
Ġmeasures
ĠLiber
Ġattend
ashed
ĠJose
ĠNight
dit
ĠNov
ĠEnd
outs
Ġgeneration
Ġadvoc
yth
Ġconversation
ĠSky
active
cel
rier
ĠFrank
Ġgender
Ġconcent
Ġcarried
anda
ĠVirgin
Ġarrived
icide
aded
Ġfailure
Ġminimum
lets
Ġworst
Ġkeeping
Ġintended
Ġillegal
Ġsubsc
Ġdetermined
Ġtrip
Yes
Ġraise
Ġ~
Ġfeels
Ġpackage
ĠJo
hi
2016
real
Ġfra
Ġsymb
Me
ucky
pret
ĠKh
ĠEdit
ĠWeb
emic
ĠColor
Ġjustice
Int
Ġfarm
cknow
">
eless
Ġreduced
Ġ500
xx
ĠRad
ĠWood
Ġclin
Ġhyp
iler
ura
kins
85
61
ĠTheir
ĠMary
Ġsan
Ġnovel
ĠWho
Ġcapacity
Ġimpossible
Ġplays
Ġminister
ijuana
icate
ĠSet
Ġfram
Ġing
Ġcommunities
ĠFBI
ita
Ġbon
Ġstrateg
Ġinterests
lock
gers
mas
ĠAND
Ġconflict
Ġrequirements
Ġsac
Ġoperating
ini
related
Ġcommitted
Ġrelatively
Ġsouth
Â¯Â¯
Ġafford
Ġidentity
Ġdecisions
Ġaccused
place
Ġvictory
och
iat
Name
Com
tion
eds
Ġseek
Ġtight
ĠImages
Ġiniti
Ġhumans
Ġfamiliar
Ġaudience
Ġinternal
venture
Ġsides
ĠTO
Ġdim
Ġconclud
Ġappoint
Ġenforcement
ĠJim
ĠAssociation
Ġcircumst
ĠCanadian
Ġjoined
Ġdifferences
ĠLos
Ġprotest
Ġtwice
win
Ġglass
arsh
ĠArmy
Ġexpression
Ġdecide
Ġplanning
ania
Ġhandle
ĠMicrosoft
ĠNor
Ġmaximum
ĠRev
Ġsea
Ġeval
Ġhelps
ref
Ġbound
Ġmouth
Ġstandards
Ġclim
ĠCamp
ĠFox
cles
Ġarmy
ĠTechn
acking
xy
SS
Ġ42
Ġbug
ĠUkrain
ĠMax
ĠJones
ĠShow
lo
Ġplanet
Ġ75
Ġwinning
Ġfaster
Ġspect
Ġbroken
TR
Ġdefined
Ġhealthy
Ġcompetition
https
ĠIsland
ĠFe
Ġannounce
ĠCup
ĠInstead
Ġclient
Ġpossibly
section
ocket
look
Ġfinish
Ġcrew
Ġreserv
Ġeditor
Ġhate
Ġsale
Ġcontrovers
Ġpages
wing
Ġnumer
Ġopposition
Ġ2004
Ġrefuge
Ġflight
Ġapart
ĠLat
Americ
ĠAfrica
Ġapplications
ĠPalest
ĠBur
Ġgar
ĠSocial
Ġupgr
Ġshape
Ġspeaking
ansion
ao
ĠSn
Ġworry
ĠBritain
Please
roud
Ġhun
Ġintroduced
Ġdiet
Ind
ĠSecond
Ġfunctions
uts
ĠEach
ĠJeff
Ġstress
Ġaccounts
Ġguarant
ĠAnn
edia
Ġhonest
Ġtree
ĠAfrican
ĠBush
},
Ġsch
ĠOnly
Ġfif
igan
Ġexercise
ĠExp
Ġscientists
Ġlegislation
ĠWork
ĠSpr
ÃĤ
ĠHuman
Ġè
Ġsurvey
Ġrich
rip
Ġmaintain
Ġflo
Ġleadership
stream
ĠIslamic
Ġ01
ĠCollege
Ġmagic
ĠPrime
Ġfigures
2017
inder
xual
ĠDead
Ġabsolutely
Ġfourth
Ġpresented
respond
rible
Ġalcohol
ato
ĠDE
porary
Ġgrab
Ġvari
Ġquant
ĠPhoto
Ġplus
rick
arks
Ġalternative
Ġpil
Ġapprox
that
Ġobjects
ĠRo
ĠAndroid
Ġsignificantly
ĠRoad
kay
Read
avor
Ġacknow
ĠHD
ĠSing
Or
ĠMont
Ġuns
prof
Ġnegoti
ĠArch
iki
Ġtelevision
ĠJewish
Ġcommittee
Ġmotor
Ġappearance
Ġsitting
Ġstrike
ĠDown
comp
ĠHist
Ġfold
acement
ĠLouis
Ġbelong
ĠâĢ¢
Ġmort
Ġprepared
Ġ64
ĠMaster
Ġindeed
ĠDen
Ġrent
TA
ourney
arc
Su
97
Ġadvice
Ġchanging
Ġlisted
Ġlaunched
isation
ĠPeter
ishes
Ġlived
ĠMel
ĠSupreme
ĠFederal
Ġ);
ructure
Ġsets
Ġphilos
uous
ĠÂł
Ġapplied
ĠNOT
Ġhousing
ĠMount
Ġodd
Ġsust
DA
fficient
Ġ?
olved
Ġpowers
Ġthr
Ġremaining
ĠWater
LC
Ġcauses
ãģ®
Ġmanner
ads
Ġsuggests
Ġends
standing
fig
ĠDun
idth
Ġgay
Ġtermin
ĠAngeles
MS
Ġscientific
Ġcoal
apers
bar
ĠThomas
Ġsym
ĠRun
this
PC
igrants
Ġminute
ĠDistrict
cellent
Ġleaves
Ġcompleted
amin
Ġfocused
Ġmonitor
Ġvehicles
MA
ĠMass
ĠGrand
Ġaffected
itutional
Ġconstruct
Ġfollows
Ġton
reens
Ġhomes
ĠExt
ĠLevel
rast
ĠIr
Ġelim
Ġlargely
ĠJoe
Ġvotes
alls
Ġbusinesses
ĠFoundation
ĠCentral
Ġyards
Ġmaterials
ulner
Ġguide
Ġcloser
ums
Ġsports
eder
Just
Ġtaxes
84
ĠOld
Ġdecade
ola
Ġvir
Ġdropped
Ġdelay
itect
Ġsecure
stein
level
Ġtreated
Ġfiled
aine
Ġvan
Ġmir
Ġcolumn
icted
eper
Ġrot
Ġconsult
Ġentry
Ġmarijuana
ĠDou
Ġapparently
oking
clusive
Ġincreases
ano
Ġspecifically
Ġtele
ensions
Ġreligion
abilities
Ġframe
ĠNote
ĠLee
Ġhelping
Ġedge
oston
Ġorganizations
Ãĥ
ĠBoth
hips
Ġbigger
Ġboost
ĠStand
Ġrow
uls
abase
Ġrid
Let
aren
rave
Ġstret
PD
Ġvision
Ġwearing
Ġappreci
Ġaward
ĠUse
Ġfactor
war
ulations
)(
Ġgod
Ġterrit
Ġparam
asts
87
Ġenemies
ĠGames
FF
Ġaccident
Well
ĠMartin
TER
Ġath
ĠHell
Ġforg
Ġveter
ĠMedic
free
Ġstars
Ġexpensive
Ġacad
rawn
ĠWhe
Ġlock
Ġformat
Ġsoldiers
sm
Ġagent
Ġresponsibility
ora
ĠScience
Ġrapid
Ġtough
ĠJesus
Ġbelieves
ML
Ġwear
lete
ÃĥÃĤ
ĠDri
Ġcommission
ĠBob
Oh
aped
Ġwarm
ÃĥÃĤÃĥÃĤ
Ġ2003
ortion
Ġhasn
uster
Ġunivers
ĠIll
Ġking
ologies
94
ĠTem
ĠMos
Ġpatient
ĠMexico
cean
ĠDeath
ĠSanders
you
ĠCast
ĠCompany
pty
Ġhappening
FP
ĠBattle
Ġbought
Am
Mod
Us
uters
ĠCre
ĠThose
Ġ44
iser
Ġsoul
ĠTop
ĠHarry
ĠAw
Ġseat
ffee
Ġrevolution
Ġ("
ĠDuring
ette
Ġring
Ġoffensive
Ġreturns
Ġvideos
Ġdiscl
Ġfamous
enced
ĠSign
ĠRiver
Ġ300
PM
ĠBus
ĠCH
Ġcandidates
arden
Ġpercentage
Ġvisual
Ġthank
Ġtrouble
nergy
Ġ2001
Ġprove
ashion
Ġenh
ĠLong
UM
Ġconnected
Ġpossibility
Over
Ġexpert
Ġlibrary
arts
ĠDirector
Ġfellow
92
irty
Ġdry
Ġsigns
ĠLove
Ġquiet
foot
Ġpure
ĠHun
Ġfilled
phas
ĠElect
endment
ĠExpl
Ġunable
ns
mo
Ġvast
obe
Ġidentify
apping
ĠCarolina
gress
Ġprote
Ġfish
Ġcircumstances
razy
ĠPhot
Ġbodies
ĠMur
Ġdeveloping
ĠAR
Ġexperienced
Ġsubstant
ĠBoard
esome
Ġdomestic
Ġcombined
ĠPut
Ġchemical
ĠChild
Ġpool
ĠCy
Ġegg
cons
sters
Ġhurt
Ġmarkets
Ġconservative
Ġsupporters
Ġagencies
idel
Ob
urb
Ġ43
ĠDefense
ye
ĠAp
dule
Ġtemperature
Ġconducted
ĠChief
Ġpulled
Ġfol
Last
onto
osis
VER
Des
ĠPan
First
Ġadvance
Ġlicense
rors
ĠJon
Ġimagine
Ġhell
Ġfixed
Ġincor
osite
ĠLog
icken
]:
Ġsurprise
hab
Ġcraft
olt
ĠJul
Ġdial
Ġrelevant
Ġentered
Ġleads
ĠAD
ĠClean
Ġpictures
essor
Ġalt
Ġpaying
Per
ĠMarket
Ġupdates
amily
ĠType
ĠHome
Ġ55
sembly
rome
83
Ġgreatest
Ġheight
Ġheav
aints
Ġlisten
aser
ĠSH
Ġcapable
acle
Ġperspect
inating
Ġoffering
rypt
ĠDevelop
abin
rc
Ġbright
alty
arrow
Ġsuppl
inding
acked
gypt
ĠAnother
pg
ĠVirginia
ĠLu
Ġplanned
Ġpit
Ġsweet
Type
ĠDi
Ġtypically
ĠFrancisco
Ġprospect
ĠDan
Ġteen
rees
Ġsched
Ġhol
Ġscr
Ġlots
life
Ġnewsp
Ġforget
ĠNone
ĠMiddle
ĠRyan
edd
Ġsevere
Ġsuit
ller
93
Ġcorrespond
Ġexplos
uations
Ġflag
game
rid
Ġprin
ĠData
Ġdeploy
ĠEnter
suit
ghan
ĠMen
Ġthoughts
Ġmatters
Ġadapt
ĠAri
Ġfill
Ġforth
Ġsam
Ġ41
Ġpayment
ĠHor
Ġspring
duc
Ġlosing
Ġbringing
FO
ala
Ġdistribution
hered
bour
ĠIsraeli
oma
Ġcombination
Ġplenty
VE
Can
ĠHaw
Ġperman
ĠSpecial
Ġtow
Ġseeking
Ġexamples
Ġclasses
cr
Ġbeer
Ġmoves
ĠIP
ĠKn
Ġpanel
Even
Ġproperly
Ġris
Ġplug
Ġestimated
Every
Ġdefensive
agraph
Ġpregn
Ġinstit
ĠVict
Ġvolume
Ġpositions
Ġlinks
ĠProgram
ĠWeek
agues
Ġtransform
ker
ĠCEO
Ġcas
Ġopponent
Ġtweet
ĠCode
Ġshop
Ġfly
Ġtalks
Ġbag
Phone
Ġaid
Ġplants
Ġ65
Ġattorney
arters
quest
ĠMagic
Ġbegins
Ġmyster
Ġenvironmental
Ġstorage
NN
Ġmarg
Ġske
Ġmetal
elly
Ġordered
Ġremained
Ġloved
Ġprompt
Ġupdated
Ġexperts
Ġwalking
Ġancient
Ġperformed
ATE
Ġneither
iency
Ġmanufacture
ĠPak
Ġselected
Ġmine
Ġultimately
Ġexplan
Ġlabel
ĠServices
ributed
Trump
Ġsyn
ĠUlt
SC
Ġmeat
Ġgiant
ĠWars
ĠON
Ġadm
Ġinterpret
Ġevening
Ġevil
ĠBoston
ĠWild
ĠÃ
ĠBitcoin
ĠAmazon
Dr
ĠInformation
Ġobviously
Ġadvanced
Photo
olar
Ġweather
Ġsymbol
Ġsole
Ġpotentially
oster
Ġoriginally
mun
300
aze
essions
Ġdeck
Ġstood
Ġyouth
ĠBern
Rep
ĠTest
Ġbasically
otic
Ġinvolve
olit
lyn
See
Ġaircraft
Ġconfirm
EW
Ġmessages
ĠRichard
Ġkit
Ġprohib
Ġvulner
isters
Ġexistence
Ġturning
ĠSP
Ġdesire
Ġflat
Ġment
season
anges
Ġneighborhood
ĠLake
ATION
Ġpointed
bur
Ġinnov
ucks
UL
Ġprofessor
Ġexpressed
AB
icious
Ġ2002
ĠDev
Ġsession
Ġbare
sen
Ġdiss
ĠCath
ĠPass
ĠPoint
Ġdoctor
orrow
ailed
ĠRub
ĠDC
ĠCharl
person
Ġwriter
ighters
ureau
Ġoblig
Ġrecorded
Ġbroke
Ġorders
ilty
Ġmotion
inity
law
adium
Ġimmigration
Ġcontrast
Ġbatt
Ġexcellent
Ġtechnical
ami
Ġtun
Ġcloud
ĠYear
geon
Ġcreation
Ġstrange
Ġauth
Ġfort
born
Ġextent
ĠToday
ĠClub
Ġrain
Ġsample
Ġaccepted
Ġtact
Ġfired
ĠSon
Ġstands
Ġboot
Ġ47
Ġstatements
Ġversions
Ġselling
ounded
Ġ1990
Ġweren
ĠWatch
Ġexperiment
Post
Ġretail
uled
Inst
unte
ãĥ¼
Ġdepart
Ġbond
ivery
ompl
Ġreaction
ĠSyrian
ĠPac
apped
aniel
DP
Ġresolution
Ġreact
Ġapproved
onom
mond
ĠOffic
---
Ġreplace
Ġtack
Ġsport
Ġchain
Ġemergency
rad
ĠPalestin
Ġ46
Ġautomatically
Ġroute
Ġpal
Ġbanks
ĠParis
ĠMedia
road
icing
ixt
isted
Ġgrew
Ġcoord
ĠWhere
omin
Ġsubs
ï¿½ï¿½
ĠÂ±
Ġcorporate
Ġselection
noon
ĠReport
cs
cluding
orders
anche
ĠIts
Ġslowly
ĠEgypt
ĠAcc
Ġcolle
iques
EX
Ġattempts
url
ĠCross
Ġfindings
ĠSC
ĠOR
Ġindex
ensity
ĠWay
ĠLand
Ġshock
dis
Ġdynam
Ġcart
mosp
Since
iest
ĠBoy
Ġstorm
ĠContin
2013
hew
ilit
Ġessential
iquid
Other
ivered
Ġreasonable
Act
Ġsubsequ
ĠPack
ĠFort
Ġconsidering
Ġuniversity
log
Ġmarried
Ġillust
ĠTrue
£ı
Ġnumerous
rastructure
Ġseriously
Ġreferred
ua
Ġconsistent
onna
ĠReal
ruption
ciples
Ġfacts
91
otes
erg
Then
Ġaccompl
Note
Ġrevenue
Ġpassing
Ġmal
een
ĠYet
Ġgather
terday
ework
ĠAuthor
Pe
Ġoptim
Ġrub
Ġè£ı
Ġunknown
stone
Ġunion
olve
Ġopportunities
Ġbrowser
ĠWal
ĠCost
Ġreporting
sts
pet
Ġsand
Ġsuddenly
Ġsurprising
ĠVR
Ġsomewhat
ĠBas
ulture
izz
ĠCD
Ġchallenges
Ġsettings
Ġexperiences
ĠFull
Ġcann
Ġreceiving
EST
Ġjoint
Ġcultural
Ġast
82
astern
ceived
ĠCru
Ġbull
pired
amm
Ġfacing
power
Ġboss
ĠHol
Ġinstr
Ġincreasingly
Ġshift
Ġstreets
ĠWilliams
abb
Ġlie
Ġlaugh
ĠCa
PL
Ġadults
Ġcustomer
Ġobtained
Ġsupporting
html
fire
Ġdetailed
Ġpicked
ĠRight
lder
EE
stood
ĠKim
Ġwire
Ġsight
Ġdevelopers
Ġpersons
Ġsad
Ġcup
Ġwarning
Ġboys
long
Ġbird
fo
Ġwal
Ġobserved
Ġzone
iveness
Ġchannel
cript
Ġrefused
ĠAgain
Ġsuc
Ġspokesman
ĠRef
rite
ouston
ãĥ³
ĠSher
Ġacts
ĠName
Ġstruggle
arry
ometimes
Ġdiscrim
HT
Ġcategory
Ġrealize
Ġemployee
ĠAfghan
enger
Ġguns
ĠSteve
ĠMot
ĠOl
oked
Ġthick
Ġfairly
illy
Ġsurve
ĠMat
weight
âĶ
Ġtroops
Ġagents
Ġbattery
Ġmotiv
Ã¡
Sec
den
overy
LS
Ġflu
Ġconfident
ĠOper
Ġempty
Ġphen
Ġsector
Ġexcited
Ġremote
aph
oen
Ġdestroyed
Ġmoral
ĠHP
ĠRon
Ġdress
ĠBat
Ġlit
ĠMS
Ġaf
HL
rum
isms
Ġshouldn
Ġsympt
ĠToronto
hetic
Ġcarbon
Ġinstalled
Ġviolent
Ġsolar
ja
Ġpractices
Ġride
ĠPenn
Ġimproved
Ġaudio
Ġbehavi
ĠPS
Ġeating
Data
ĠReview
pass
claim
uated
angers
chen
Ġproperties
Ġanywhere
Another
Ġblow
ĠJackson
Ġproud
Ġplane
lines
Ġsquare
Ġproof
ansas
Ġtalked
makers
Ġsister
Ġholds
Ġresident
Ġ==
Ġresistance
Ġsplit
Ġprosecut
Ġconfidence
resents
Ġcuts
Ġexception
Ġzero
Getty
Ġcopyright
Ġtotally
ormal
ifications
ĠAustralian
Ġsick
Ġ150
Ġhousehold
Ġfees
Ġdrivers
ogen
ĠNY
Ġnecessarily
Ġregulations
earing
sl
Ġperspective
care
icial
His
Ġescape
Ġsurprised
ĠVan
urrent
Ġvac
81
ĠThus
Ġemphas
ĠChampions
ĠIce
Ġnarr
Ġheads
Ġcausing
bel
fortunately
ĠMa
Ġtargets
cipl
Ġafternoon
Ġadds
ĠMaybe
ĠFour
essed
plete
Ġusual
cho
ingu
Ġwithd
ĠEnergy
ĠEconom
OO
Ġarticles
Ġinjured
Ġmanage
Ġexplains
Ġdiagn
Rec
atures
Ġlinked
Ġdiscussed
Ġexplo
Ġoccasion
athan
Ġopposite
Ġfaces
Ġdenied
ĠKnight
Ġnut
Ġapproximately
Ġdisappoint
onymous
ĠBest
ĠLo
ĠHy
ĠAff
Ġvoting
anwhile
ĠIII
Ġinstitutions
agram
ĠDaily
Ġdrag
Ġnearby
Ġguilty
Ġconver
Pre
ship
Ġreward
Ġphilosoph
ĠSS
ugh
Ġapps
friend
Ġupper
Ġadvert
Ġsnow
Ġfrust
Ġourselves
Fr
ĠDie
ampion
Ġdismiss
Ġcere
Ġsignal
from
Ġ).
Ġ52
Ġcrimes
itors
estival
useum
Ġcouncil
ĠSaud
May
ĠGun
ician
ether
Ġsufficient
ĠHen
sole
Ġhistorical
ĠFar
ĠTurn
Ġpin
Ġsucceed
mat
lymp
Ġtradition
ĠOk
Ġcro
Ġdescription
alle
Ġsky
Te
Ġwidely
Ġwave
Ġdefinition
ĠJews
Ġcycle
Ġrefere
Ġbrings
usal
Ġalive
Ġfrequently
Ġintention
ĠControl
lv
ystem
Ġprivacy
gent
rence
ĠQuest
ĠChristmas
Ġrail
Ġcooper
Ġtested
ĠCapt
asks
Ġcomfortable
Ġdelivered
scape
Ġdepth
ĠGOP
Ġwrites
Ġassets
Ġsav
iments
Ġtransition
Ġartist
ĠLook
Ġlob
Ġcomponents
arity
Ġwalked
Ġroot
Ġparticipants
Ġnoticed
Ġresc
Ġnav
ĠAdminist
da
utral
plate
Ġimportance
Ġassert
iously
cription
Ġinjuries
ĠCheck
Ġregistered
Ġintent
Ġmissed
ographic
Ġsentence
ounter
Ġassistance
evin
Ġdatabase
Ġbuildings
Ġclassic
Ġthinks
ĠOhio
Pr
ugg
Ġfee
pan
Ġeffectively
Ġfacility
Ġbear
Ġchapter
Ġdogs
ĠColumb
Ġlatter
itial
Ġadmitted
TV
ĠGeorg
Ġposts
\\
Ġlawyer
Ġequival
Ġmand
Ġcontrolled
ĠWalk
ĠAndrew
Ġmenu
amental
Ġprotected
va
Ġadministr
oral
Ġrein
ĠSar
Ġamounts
Ġnative
ĠMoon
Ġrepresents
Ġabandon
Ġcarrying
Ġtank
mary
Ġdeclared
Tube
Ġhat
Ġpunish
ellect
mes
Ġuniverse
ĠRod
phy
Ġinfrastructure
Ġ51
Ġopposed
ownt
ca
ĠMake
Ġhardware
Ġcoffee
Rel
bal
world
ĠSaf
ĠSea
inals
Ġowned
Ġhall
ersion
Ġdescribe
ĠPot
Ġportion
Ġatmosp
Ġgovernments
Ġdepending
Ġoffense
Ġtrick
awa
ĠLine
ĠVis
ĠHard
ĠOrig
ĠClick
Ġdesk
ĠValley
ĠSov
Ġmovies
Ġremark
Ġmail
Ġconscious
Ġruling
ĠRights
Ġmedic
hent
ĠWomen
><
Ġreplaced
ĠPrem
ĠThanks
Ġrenew
ĠBall
iform
Ġshots
Comm
Ġarmed
Ġconstant
Ġtaste
Ġrealized
Ġbuff
Ġmo
Ġefficient
Most
oration
ifies
Ġcommunication
Ġflood
Ġconsequences
Ġanyway
igg
ĠGM
ĠThank
Ġiron
Ġevolution
ĠCop
twitter
Ġ95
Ġrelationships
adel
ĠYoung
Ġproposal
ayers
uilding
ĠHot
ORE
cos
Ġcollabor
PG
axy
Ġknowing
Ġsupports
owed
Ġcontrols
Ġmerely
umer
Ġathlet
Ġfashion
path
Ġgift
Ġera
AND
Ġkinds
ĠKorean
Ġlegit
ulous
Ġessentially
Ġtherap
nic
Ġsuffered
Ġhur
Ġpromise
Ġexcess
Ġoverw
Ġprime
ĠHouston
erry
ĠMs
RS
2012
Ġstores
ĠOlymp
Ġjourney
Although
Sub
ĠEduc
ĠChapter
Ġrequests
Ġconsumers
Ġtiny
Ġisol
ĠFair
ba
ĠYOU
Ġcrash
celer
Ġemotional
Ġgoods
Ġelected
Ġmoder
ĠLinux
Ġblocks
Ġisland
ĠSociety
Ġelections
Ġbroadcast
Ġcheap
Ġnations
Ġseasons
400
Ġwaste
ĠSat
Ġfields
employ
Ġprofile
Ġauthors
ALL
ĠGra
west
ĠTy
Ġdeaths
Ġvacc
Ġformed
Ġdu
Ġongoing
ĠMuslims
elf
igure
Ġassume
ĠUkraine
water
Ġcoast
Ġvoted
gor
ĠAS
ĠMichigan
aza
ĠArm
iro
Ġflex
asters
''
Ġwelcome
arl
Ġlocations
igation
ĠFil
Ġbuying
Ġarchitect
Ġharder
ĠCub
Ġinterface
Ġrestaurant
Ġdiscover
Ġexceed
Ġfavour
gery
Ġduty
Ġpitch
ador
ĠMach
boy
Ġresponded
Ġextended
hers
Many
raid
ifer
ĠIns
Ser
Ġmedium
she
ĠSports
Ġmagazine
utation
Ġlimits
ĠGall
Ġexternal
razil
Ġyounger
tle
Ġremind
ĠCON
Ġimmediate
Ġhidden
Ġvolunte
Ġsimpl
odcast
Ġphase
dr
Ġplot
Ġexposure
RI
ograp
vin
anish
ĠAcad
ĠEngine
Ġexpansion
ĠPay
Your
Ġpushed
ĠEll
ĠHead
Ġmarketing
ĠAC
ket
Ġhits
Ġgro
ĠAge
ĠScot
][
Ġstim
ĠiPhone
ĪĴ
Ġnarrow
ĠGetty
ĠTurkey
Ġperfectly
Ġenable
utch
Ġprecise
Ġregime
Ġshif
Ġcompens
gun
div
Ġchosen
ĠKen
Any
Ġtrees
Ġrecommended
ĠRen
uable
ĠHT
Follow
EG
ĠHand
ĠKenn
Ġarguments
Ġexists
Ġbike
ĠConserv
Ġbreaking
ĠGar
Ġcrazy
Ġvirtual
aylor
ixel
Ġ1980
Ġpermission
ĠSeries
Ġconsumer
Ġclosely
called
Ġ54
Ġhopes
Ġarray
ĠWin
ĠLabour
Ġspons
ĠIre
Ġpow
Ġreaders
Ġemployment
Ġcreature
Ġresulting
Ġaccurate
Ġmoments
Ġargued
Ġped
During
Ġ53
ĠTal
Ġsought
Ġsuffering
Ġicon
lee
Ġ($
alian
Â°
Ġpra
Ġbonus
("
ko
Ġacting
DE
fall
Ġcomparison
Ġsmooth
ĠNAS
upp
ĠJoseph
eping
ĠTake
ĠMid
Ġsending
fast
ĠFall
Ġdealing
user
ĠOrgan
Co
Ġattached
Ġsees
%.
Ġtypical
ART
Ġfinds
ĠAsia
umin
ĠCore
ĠEnt
inent
uce
ĠBlood
ĠNever
Ġemails
Ġhighlight
Ġconfront
atus
uted
Ġunus
Ġtopic
ĠAdam
Ġble
ati
Ġunderstood
Set
struct
TP
Ġmob
aa
ĠStart
pected
sell
Ġdedicated
ĠCA
uan
Ġsongs
escription
Ġtech
Ġrape
Ġaside
Ġgrant
Ġ56
sub
Ġargue
Ġcontaining
Ġschedule
Ġliberal
Ġpublicly
Ġheavily
ĠUt
iner
ĠSection
ĠCare
weet
ls
Dis
âĶĢ
ĠFollow
Back
ĠIT
Ġbes
ji
ĠHit
ested
Ġeverybody
ĠSwed
Ġfemin
Ġfacilities
Ġconven
Comp
ĠOS
core
Ġanx
Ġdivision
ĠCam
ĠStan
mates
Ġexplore
plom
Ġshares
pload
anes
Ġideal
eters
ĠBase
Ġplastic
Ġdistinct
ĠNetwork
ĠSeattle
Ġtrading
ensus
intend
Ġexhib
Ġinitially
ĠFood
Ġthousand
ĠBusiness
acter
Ġparagraph
Ġroughly
Ġwww
Ġcreative
ĠConf
Ġconsumption
Ġfilms
agan
Ġobtain
Ġtall
Ġtor
Ġacknowled
Ġgrown
alo
KE
Ġ400
enders
taining
UG
Ġsuicide
Ġwatched
ĠList
ali
rehens
Ġsurrounding
Ġpip
Ġflying
ĠJava
ordan
Ġserving
inations
post
Ġsho
Av
Ġjail
zy
Ġ1999
Ġ</
Ġliterally
ĠSir
Ġexposed
Ġlies
star
Ġbat
Ġearned
ĠDig
Ġspecified
ĠSeason
Ġdegrees
Donald
Ġcentre
Ġsharing
Ġwinter
ĠCO
Che
ĠÎ
MP
Ġunw
Ġfewer
ĠMir
Ġsomewhere
ĠKey
Ġattacked
ĠKir
Ġdomain
Ġstronger
Ġ99
Ġpenalty
Id
Script
Ġdeclined
Ġneck
Ġfraud
Ġcurrency
Ġrising
RC
âĢ¦âĢ¦
Hz
Ġtab
Ġtalent
nam
ĠNBA
Ġvillage
Ġlegs
ĠNext
Ed
Ġacid
Ġhyd
800
Ġinvolving
ĠImage
ĠBefore
Fl
Ġyesterday
Source
Ġterrorist
Ġsup
Ġsynt
ĠSaudi
Ġwest
Ġru
burg
Ġvisible
Ġstruck
rison
Ġawesome
Ġdrawn
Ġanswers
ĠGirl
ĠRam
Ġthreats
Ġdefeat
osit
Ġvent
aturally
American
enda
ĠHoly
Ġrum
%,
case
ĠHistory
ĠYouTube
Ġsituations
ĠDNA
Ste
Ġsaved
Item
Ġrecip
ologist
Ġfaced
Ġelig
Once
ĠLi
uh
Ġmistake
ĠDivision
ĠBell
Ġsymptoms
Â®
Ġdomin
Ġfalling
Ġending
ashes
Ġmatches
ĠOnline
Ġexplanation
Def
redit
Ġanymore
ĠTotal
ĠFOR
ushed
Ġletters
Ġrisks
ĠOK
Ġreportedly
:\
Ġplate
Ġsubjects
Ġattempted
ifier
iana
Ġunlikely
ĠThough
uma
ĠInvest
ĠPrin
ican
ĠDar
ĠColorado
aug
Ġveget
aos
ria
Ġshel
Ġmarked
Ġ()
Ġspr
po
ĠLink
Ġdefe
ĠJr
Ġtheme
Ġpassion
ĠPen
Ġinfo
izer
Ġshit
ĠCivil
apse
cre
Ġpoly
Ġcomponent
ĠCharles
ĠIreland
ĠProv
Ġdoctors
Ġgranted
Ġpaint
Ġhonor
Ġsmoke
Ġpayments
Ġprimarily
ĠKingdom
rich
atell
Ġdeals
Ġscheduled
Ġfundamental
Ġprotein
Ġnewspaper
Ġclients
ython
ĠDate
hus
Ġfeedback
Ġstretch
Ġcock
Ġhotel
ĠQueen
Ġsugar
Ġju
Ġmilk
Ġapproval
ĠLive
Ġequivalent
efully
Ġinsert
zona
Ġextension
dri
John
Ġaccomp
Sm
ĠFund
Ġconstantly
Ġ``
Ġgenerated
ĠAction
ĠPsych
ĠTri
Ġrecognize
Ġvary
pha
ĠRa
df
etch
ĠSoviet
Two
Ġpatterns
Ġprofession
aning
Time
ĠLim
Ġcolors
ĠAz
ĠTR
Ġinfect
Ġphenomen
Ġshell
Also
Ġputs
Ġdelivery
Ġbrown
Ġprocessing
Ġlights
essage
ĠBrook
ĠAud
lation
Ġindustrial
Like
ĠBrazil
rous
ESS
ĠLuc
Ġsomehow
Ġ85
Ġproport
Ġpoliticians
Ġindicate
Ġhole
Ġtechniques
Ġcompetitive
Ġphr
Ġvo
istent
ĠDream
Ġcampus
Ġaspects
Ġhelpful
Ġshield
orse
Ġtrigger
mal
Ġ58
Ġtort
Ġpersonally
Ġtag
Ġkeeps
ĠVideo
Ġbench
Ġgap
aire
Ġeast
Ġrecovery
perial
Ġprofit
ĠMic
Ġ57
Ġcolon
Ġstrongly
style
Ġallegations
han
Ġreporters
jo
rine
arget
andal
Ġ03
Ġflash
trans
Ġstrict
Ġparking
ĠPakistan
Ġli
Ġweird
ĠEric
Ġregions
ĠJun
Ġintellect
ĠWH
oding
ributes
upid
ĠTit
Ġfinger
oria
Ġelev
ĠField
Ġconclusion
;;
Ġfeelings
Ġextensive
Ġmixed
Ġneuro
vy
Ġharass
ĠCirc
ouch
Ġterritory
Ġsuccessfully
Mar
Ġingred
Ġoverwhel
Ġlayer
View
Ġallies
illance
ĠThree
Ġbunch
Ġnormally
Ġnetworks
Ġsacr
ĠCIA
bles
Ġchose
Ġopponents
Ġregardless
Ġfranch
Ġpref
ĠPo
Ġbridge
anna
ĠSilver
Ġwage
page
rior
Ġradical
ĠLittle
Ġmanip
Ġsecretary
Ġgang
DR
FA
Ġdecent
ĠSpirit
Ġuncle
ĠDevelopment
Ġinvestors
Ġwalls
Ġpublish
Ġgenerate
issions
car
Ġpromote
Ġcutting
Ġchest
Ġdrinking
Ġcollected
Ġ72
Ġhoping
Ġembr
gorith
Ġwarned
Ġinstructions
OG
ĠDid
ĠAgency
Ġgear
Ġcriticism
ĠFurther
Ġutil
anny
Red
Ġcounsel
ĠAsian
Ġreduction
pool
Ġteaching
Ġdeeply
iy
Ġestimates
Ġchoices
Ġpermanent
inem
kel
Ġfasc
pse
file
ĠLow
ĠPerson
Ġtournament
stal
Ġmel
UST
ĠRay
azi
Val
Ġcontained
ĠHolly
Ġwake
Ġreveal
Ġprocesses
ĠISIS
Ġ09
Ġblind
Ġsteel
ĠBad
Ġcarefully
appy
roit
Ġgaming
Ġhouses
ĠColl
Ġtruck
erm
Ġscored
Ġoccas
return
bound
var
Ġsharp
Ġafraid
ĠEX
amber
cific
Ġscheme
NC
ĠPolit
Ġdecline
Ġ1998
Ġpushing
Ġpossession
Ġprivile
Ġteachers
Ġyield
HA
ĠDavis
itled
########
Ġrig
ĠDaniel
acon
Ġhide
uten
Ġcolleagues
Ġprinciples
Ġloud
Ġsin
ĠDemon
Ġstone
Ġ02
Ġtaught
Ġterrible
Ġstuck
ĠPolicy
teen
Ġimplementation
ĠBBC
ĠAPI
Ġwheel
allas
Ġchampions
olars
player
Ġrepeatedly
ĠStill
Ġlikes
asty
ester
ĠCatholic
RL
Ġbath
Ġnoise
title
Ġnorthern
Part
Ġmagn
Ġfab
ĠAsh
Ġdispl
Ġticket
Ġmurd
Ġalongside
ĠMusic
Ġriver
ĠSteel
ĠCL
ĠPlayer
ĠMult
owing
rep
size
Ġtur
ĠGeorgia
iscal
raction
Ġcable
Ġ59
Ġwins
Ġupcoming
Ġsurvive
Ġinspired
ĠEducation
Ġstatistics
ĠFoot
iami
Ġyellow
ĠPage
.-
ĠHas
Ġurban
Ġax
essel
\"
Ġquarterback
Ġregister
ĠLabor
Ġabilities
ĠFamily
Ġvariable
ĠPrice
Ġcontem
Ġthin
ĠEqu
data
Ġgotten
Ġconstit
Ġasks
Ġtail
Ġexciting
ĠEffect
ĠSpanish
Ġencourage
inson
ĠAh
Ġcommitment
CS
Ġrally
Ġ::
Ġsubsid
Ġspin
Ġcaptured
2018
Ġinnoc
Ġallegedly
ĠCome
Ġartists
ĠNumber
Ġelectronic
Ġregional
apes
Ġwra
Ġmyth
prise
ĠMiller
ĠCreat
ĠEpisode
bell
Ġdirected
Ġextract
Ġsorry
Ġvice
agger
ĠSupport
Ġ66
ĠIron
Ġwonderful
Ġgra
Net
ione
Eng
Ġships
ikes
ĠKevin
itar
Ġactivists
true
ĠArizona
enth
ĠDespite
ĠSE
Ġhabit
ernel
Ġinqu
Ġabortion
Ġvoid
Ġexplicit
Ġengaged
Ġangry
Ġrating
Ġfrag
bro
icking
dev
Ġworried
Ġobser
Ġapartment
ĠGT
Ġestate
ĠConstitution
emon
ĠSnow
Ġcounty
Ġdisag
ĠStephen
Ġimmigrants
wind
ĠNations
Ġfolks
Out
Ġgall
Ġtargeted
Ġstead
ĠBon
ĠLib
Ġinformed
Ġ120
chain
idelines
orough
Ġdriven
Ġregularly
Ġbasket
Ġprinciple
ocument
Ġstun
ibilities
ĠRoman
ĠAbout
Ġalert
Ġdemocracy
Ġrepresented
HS
cers
parent
Art
pack
Ġdiplom
rets
ĠNO
Ġcapture
ĠAdv
Ħ¢
Ġannouncement
ĠLear
Ġhook
Ġpurs
ĠSuch
ĠCamer
Ġrefugees
ĠVe
Pol
Ġrecognized
lib
Ġhadn
Ass
Ġpilot
ushing
Ġreturning
Ġtrail
ĠStone
Ġroutine
Ġcourts
Ġdesper
Ġfriendly
ĠItaly
Ġpled
Ġbreath
Ġstudio
NS
Ġimpressive
ĠAfghanistan
Ġfing
Ġdownt
inking
ĠRog
iary
color
sex
aron
Ġfault
ĠNick
Down
ĠRose
ĠSouthern
XX
isodes
List
600
Ġoutcome
err
Ġelsewhere
Ġretire
Ġpounds
ĠGlobal
People
Ġcommunications
Ġloan
Ġratio
ĠEmpire
Ġgonna
Ġinvent
DF
Ġ1970
ĠCommon
pat
Ġpromised
Ġdinner
ĠHom
Ġcreates
Ġoperate
verty
ĠJordan
etime
Ġsustain
Reg
Ġincredible
ima
Ġwarrant
Ġmm
Att
Ġlawsuit
Ġreviews
iture
ĠSource
lights
ĠFord
Ġ63
group
store
Ġfeatured
Ġforever
Ġpoverty
ĠPop
ĠCNN
azz
abis
aching
Ġlaid
ĠSupp
Ġfilter
ena
ĠCommunity
Ġcreatures
uction
ĠRoyal
Ġassociation
ĠConnect
ĠBrad
âĸĪ
lers
there
ĠGi
Ġvaluable
ACK
ĠTaylor
Ġliquid
ĠAttorney
ĠCarl
ĠFinal
aga
ĠWilson
Because
ĠProfessor
aka
Ġincredibly
rance
!)
Ref
sk
Ġsolutions
Ġatmosphere
Ġblame
umes
ĠNob
CA
umps
rical
ĠPutin
ĠDest
oric
ĠPA
Ġrespectively
wan
Ġfifth
âĦ¢
ĠCry
Ġgovernor
resident
Ġpurchased
Ġhack
Ġintense
obs
Ġorigin
Ġdefine
Ġcareful
***
Ġshoulder
Click
Ġtied
Ġdestruction
oured
Ġnobody
Ġho
ĠExper
Ġtip
";
Ġtechnique
Ġjur
ĠPok
bow
Ġlegend
Ġaccord
Ġbusy
ĠIntel
Ġhang
aki
.]
âĢĶâĢĶâĢĶâĢĶ
Ġsurgery
Ġreprodu
Ġuniform
Ġscenes
code
Ġ62
lisher
ĠHave
phia
Ġcrypt
Ġrecon
Ġscream
Ġadopted
Ġscores
Ne
ĠItalian
including
BO
Ġindicated
Ġentertain
Gu
Text
iel
Ġtwenty
Ġengage
offs
ĠPacific
Ġsmile
Ġpersonnel
Ġtoler
Ġdoors
Ġtone
Ġmachines
Ġentering
tenance
CO
ĠJersey
Ġforest
Ġhorse
Ġcomplaint
ĠSpring
yo
ĠPlus
eding
ĠReturn
quarters
ials
cow
Ġacademic
Ġfruit
Ġ1996
ogether
Ġwine
Ġpursu
ĠSteven
Ġlicens
Who
Ġclothes
rection
Ġsquad
Ġstable
Ġraw
zens
Star
uties
ancer
Ġkeys
ĠMu
Ġcomplicated
iger
ĠText
Ġabsor
Ġ68
Ġfunny
Ġrelief
ĠLew
ĠCook
Ġchart
Ġdrawing
GE
Ġmodule
ĠBull
ILL
Ġsalt
00000000
ille
Ġresource
away
adelphia
ĠBru
Ġ67
Ġsomebody
Ġparticipate
Ġrose
wered
Ġmuscle
Ġconsent
Ġcontinuing
ĠGuardian
ĠOrder
regon
Ġrear
Ġprovision
Ġliked
rient
Ġbra
Trans
Ġmeetings
Ġtox
Ġconvent
Ġauto
Ġrecording
ĠSoft
001
ĠRoll
Ġprogramming
Ġpic
Ġproved
Ġstab
ĠAst
Ġcaption
ulating
ĠAttack
Ġnewly
Ġ1997
fr
Ġdiscipl
ĠGreek
Ġedition
ĠDoes
ĠBox
ifle
acket
Ġpasses
Ġguest
Ġacceler
itals
UD
Ġauthent
ĠRest
oval
ta
uine
Ġarmor
ĠTown
Ġcompat
Ġinches
Despite
Ġassign
herent
Ġprepare
ĠMeg
ockey
Ġdepends
Ġtracks
watch
Ġlists
ĠNorthern
Ġalter
rec
ĠEastern
Ġcondem
Ġeverywhere
?'
Ġaffili
Ġfought
":{"
Ġmac
itarian
Ġscope
ĠAL
aws
arms
Ġque
Ġenjoyed
nesota
Ġaggressive
ĠStory
ĠIV
Ġrecipe
Ġrarely
ĠMedical
value
angel
aying
omething
Ġsubsection
Ġsouthern
Ġfrequency
rete
rolled
ults
ĠNic
Ġbehalf
Ġsequence
abet
Ġcontroversial
Ġcomprom
Ġworker
Ġmainly
Ġalgorith
ĠMajor
orce
gender
Ġorganized
Ġfake
Ġconcluded
ĠED
ĠExec
rage
Ġchances
berry
ĠTrad
Ġconfiguration
Ġwithdraw
Ġfro
udes
ĠBrother
ĠBrian
Ġtries
Ġsamples
Ġbid
ĠGolden
Ġphotograph
ifest
ĠDO
ĠParliament
****************
Rem
Ġcontest
Ġsigning
px
ĠZeal
âĶĢâĶĢ
Ear
Ġexit
Before
ĠCorpor
null
month
Ġracial
otted
ĠVeg
ĠReuters
Ġsword
pson
ĠRomney
aed
Ġtrib
Ġinner
Ġprotocol
ĠBi
ĠMiami
everal
press
Ġshipping
ĠAmendment
ĠHoward
connect
ĠDisc
ĠJac
iamond
ĠTherefore
ses
ĠPrincess
ĠUSB
ĠAnth
Ġsurveillance
Ġapolog
Ġ61
owa
Ġfulf
js
Ġluck
usted
ĠÂ§
ni
Ġanticip
eman
Ġwinner
Ġsilver
lla
icity
Ġunusual
Ġcrack
Ġties
ez
Ġpractical
Ġprovince
ĠPlace
Ġpriority
ICE
Ġdescribes
Ġbranch
Form
aska
missions
bi
Ġporn
ĠTurk
Ġenthus
Ġfighters
Ġ08
ĠDetroit
Ġfoundation
avid
Are
Ġjudgment
cling
Ġsolve
ĠDesign
Where
hesis
ĠTro
after
Ġneutral
ĠPalestinian
ĠHollywood
Ġadvis
ĠNon
yes
olis
Ġreputation
Ġsmell
Ġbread
ĠBul
ĠBeach
Ġclaiming
Ġgenetic
Ġtechnologies
Ġupgrade
rows
Ġdeveloper
ĠJosh
ĠDisney
erved
ipal
Ġunex
Ġbarely
then
ĠPub
Ġillness
etary
ĠBal
Ġpatch
Ġbutt
Ġstupid
ĠDog
ĠDallas
front
iece
Ġprotests
Ġchat
oenix
Ġwing
Ġparliament
Ġ77
osexual
Ġrender
ptions
ĠCoast
osa
ĠGreg
hop
ĠManagement
Ġbitcoin
Ġrecover
Ġincorpor
orne
ĠUsing
Ġpreced
Ġthreatened
Ġspiritual
ĠEvent
ĠFred
Ġadvertising
Ġimprovements
ĠCustom
Ġerrors
Ġsensitive
ĠNavy
Ġcream
Look
Ġexclusive
Ġcomprehens
Ġdeleg
Ġconce
Ġremem
Ġstructures
Ġstored
ND
Ġ1000
UP
ĠBudd
AF
woman
ĠAcademy
ðŁ
sea
Ġtemporary
About
esters
Ġtickets
Ġpossess
inch
oz
Ġla
Ġcontracts
Ġunp
Ġcig
ĠKat
ultural
asm
Ġmountain
ĠCaptain
Step
making
ĠSpain
Ġequally
Ġlands
aters
Ġrejected
era
imm
rix
CD
Ġtransaction
gener
lessly
Ġ||
Ġcos
ĠHenry
Ġprovisions
Ġgained
Ġdirectory
Ġraising
ĠSep
olen
onder
Ġconsole
inst
Ġbom
Ġuncertain
150
ocking
Ġmeasured
Ġplain
Ġseats
Ġdict
SL
afe
Ġestimate
izon
athered
Ġcontributed
Ġepisodes
ommod
Gr
ANT
Ġ69
Gener
Ġ250
viously
rogen
Ġterrorism
Ġmovements
entle
ounce
ĠSoul
Ġprev
ĠTable
acts
riors
tab
Ġsuffer
Ġnerv
Ġmainstream
ĠWolf
Ġfranchise
bat
Ġdemands
Ġagenda
Ġdozen
Ġclinical
izard
ĠOp
td
Ġvisited
ĠPerhaps
Ġactor
Ġdelic
Ġcontribute
Ġinject
ĠEs
acco
Ġlistening
Ġcongress
ependent
Ġpremium
Ġ76
ĠIrish
Ġassigned
ĠPhys
Ġworldwide
Ġnarrative
otype
mont
base
ĠBowl
ĠAdministration
Ġrelation
ĠEV
CP
Ġcovers
Ġ78
Ġcertific
Ġgrass
Ġ04
piracy
ira
Ġengineering
ĠMars
Ġunemploy
ĠForeign
stract
Ġven
Ġsteal
Ġreplied
Ġultimate
Ġtitles
dated
Ġjoy
aus
Ġhyper
aku
Ġofficially
ĠProduct
Ġdifficulty
peror
Ġresulted
ribed
link
who
~~~~
ĠSpeed
ĠViet
Wind
ĠBarack
Ġrestrictions
ĠShare
Ġ1995
itionally
Ġbeauty
opt
Ġmaps
ĠCR
ĠNation
ĠCruz
Will
Ġelectricity
Ġorg
Ġburd
Ġviolation
Ġusage
Ġpermit
ĠChron
ĠFant
Ġnaturally
Ġ07
Ġthrown
ĠAwoken
Ġalien
ĠHero
ĠKent
ĠRick
rike
Ġpace
},{"
GL
Ġpoison
ĠTower
Ġformal
alysis
Ġgenuine
Ġkil
aver
Ġprocedure
ĠProp
intendo
ĠMain
asant
Ġtrained
Game
ĠLoad
ĠMA
Ġcrucial
Ġlets
ĠFR
Ġchampion
101
ĠConference
Ġwriters
Ġconnections
Ġokay
irms
ĠRand
Ġencounter
ĠBuff
Ġachieved
Ġchecks
iscons
Ġassistant
Ġwhenever
ĠAccess
ĠUr
bin
Ġclock
isp
opher
Ġborrow
Ġmad
Ġpersonality
only
IST
abama
Ġgains
Ġcommonly
Ġterr
Ġhypot
Ġrely
Ġtiss
isconsin
Ġridic
function
ĠOregon
Ġuncom
rating
eland
ĠNC
Ġmoon
annon
Ġvulnerable
utive
ÂłÂłÂłÂł
ĠRadio
Ġwestern
sect
ĠTony
Ġoccurs
ĠOs
ĠHon
ÃŃ
Ġvessel
ĠScotland
Ġdiscrimination
Ġsubsequent
string
Ġfantasy
ĠShadow
Ġtestim
WE
iti
ras
Ġboat
Ġmarks
Ġordinary
Ġren
Ġrepresentative
Ġpetition
Ġ73
Ġadventure
Ġignore
ĠPhiladelphia
ĠSav
VP
Ġfactory
Ġtasks
Ġdepression
zed
................................
ĠStorm
Ġcogn
Ġeligible
Ġreducing
via
Ġ05
Ġstriking
Ġdollar
ho
OV
Ġinstrument
Ġphilosophy
ĠMoore
ĠAvenue
Ġruled
ĠFront
INE
ĠMah
Ġscenario
ĠNASA
Ġenorm
Ġdebut
Ġtea
Today
Ġabsence
Sim
Ġham
leep
Ġtables
ĠHeart
MI
Ke
requ
VD
map
Ġchairman
Ġpump
Ġrapidly
vi
Ġsubstantial
EP
des
chant
ilipp
ĠSanta
riers
anchester
Load
ĠCase
Ġsaving
Ġ74
ĠAFP
erning
ounced
ĠMinnesota
ĠWas
Ġrecru
Ġassessment
ĠBron
UE
Ġdynamic
Ġfurn
ulator
Ġpropag
high
Ġaccommod
Ġstack
ĠSus
writ
Ġreven
ĠGodd
ĠZealand
abs
Ġbrut
Ġperpet
hot
Ġhardly
ĠBurn
ãĤ¹
Ġsty
Ġtransactions
Ġgate
Ġscreens
Ġsubmitted
Ġ101
Ġlanguages
ught
emen
Ġfalls
Ġcoc
Ĥ¬
Ġstrikes
pa
Ġdeliber
ĠIM
Ġrelax
annels
ĠSenator
Ġextrem
Ġ},
ĠDeb
Ġbell
Ġdisorder
cut
ĠiOS
Ġlocked
Ġemissions
Ġshortly
"]
ĠJudge
ĠSometimes
Ġrival
Ġdust
Ġreaching
File
Â¯Â¯Â¯Â¯
inois
ĠJason
Ġsatell
aret
Ġstations
Ġagric
ĠTechnology
comes
ĠUnfortunately
ĠChildren
Ġapplies
asted
Ġanger
ailability
ĠDamage
Ġcompare
ĠStandard
Ġaimed
ĠBa
anguage
Ġregulation
Ġjury
Ġairport
Ġsections
ĠPrince
emed
Ġmedicine
Ġhitting
Ġspark
olves
Ġads
State
Ġfoods
Ġreplacement
Ġchicken
Ġlowest
Ġminds
Ġinvolves
ui
Ġarrang
Ġprocedures
ĠWhich
iversary
Ġbills
Ġimprovement
Ġinev
Ġexpectations
Ġintellectual
Ġspaces
Ġmechanism
250
break
ĠZe
ĠTenn
ĠBalt
Ġbarrel
Ġstatic
mann
Police
Ġtips
Ġhandling
cus
oded
ilton
iry
Ġjournalists
ourse
Ġcomic
Ġnomine
ITY
Ġversus
Ġloop
Ġsurf
ĠIndust
ĠHunter
Ġbeliefs
isan
Ġsetup
Ġbrew
image
Ġcomputers
fol
},"
ĠMedal
Ġtaxp
Ġdisplayed
Ġgrav
Ġfiscal
Mon
ĠMoscow
ĠKong
ĠCentre
Ġcameras
ĠMrs
ĠHay
Ġaver
ĠKelly
py
Ġrequirement
Ġentitled
ombie
Ġshadow
agic
ĠAk
Ġelite
Ġdivided
Ġheading
Ġcopies
Ġlosses
Ġvit
ked
ĠBry
Ġans
ĠSteam
Ġreporter
heim
ĠItem
Ġsuperior
don
erent
Ã¶
Ġtherapy
Ġpeak
ĠModel
Ġlying
Ġgam
zer
ritten
Ġresponses
Ġconsideration
ĠBible
Ġloyal
Ġinstant
Ġpm
ĠForest
Ã¼
Ġextend
Ġconvicted
Ġfounder
Ġconvin
ĠOak
check
Ġscholars
ped
Ġoverse
Top
count
ĠArk
Â·
Ġ06
ĠLA
md
ĠLatin
imental
ĠCPU
Ġsubstance
Ġminority
Ġmanufacturing
Er
ocolate
Ġattended
ĠManager
rations
Ġappreciate
omy
GBT
idency
BL
Ġguarantee
position
Ġocean
clude
Ġheaded
Ġtape
Ġloose
Ġlogic
Ġproven
Ġspir
Ġadmit
isa
Ġinvestigate
Ġ1994
sylv
ĠLost
cest
Ġ71
Ġrequested
Ġwindows
ĠPokÃ©
ĠWithout
Met
Ġbehaviour
Ġreader
Ġhung
ĠKeep
Ġroles
Ġimplemented
Ġblank
Ġserves
ĠJay
Ġcited
ĠFriend
profit
apon
Ġrepair
item
arrass
Ġcritics
adi
ĠFather
Ġshout
Ġfool
Ġ88
Ġproducing
Ġlib
Ġrounds
Ġcircle
Ġprepar
Ġsubmit
Ġnic
morrow
ãĥ«
Under
Ġvital
atern
Ġpassword
Ġpublication
Ġprominent
Ġspeaks
Ġbars
Ġdeeper
ĠMill
ported
Ġwid
Ġbutter
Ġsmoking
Ġindicates
Key
ropri
ĠFile
alling
asting
ĠRus
Ġadj
Ġ79
aval
Ġpresum
burgh
onic
Ġfur
Ġpolls
ika
Ġsecondary
Ġmonster
igs
ĠCurrent
Event
Ġownership
endar
Ġarrive
ĠTax
Ġnull
ĠPriv
Ġthro
Ġkiss
cat
Ġupset
angle
itches
ector
ologists
ĠGalaxy
Ġcorruption
Ġhint
enter
ĠHospital
Ġgreatly
Ġbegun
esy
Ġsoil
ĠAnton
Ġmaintenance
ãĥ©
Ġdozens
Ġhumanity
ĠAlabama
Ġrom
worth
aping
sylvania
lah
Ġgathered
GA
Ġattacking
found
ĠSquare
Ġarbit
ictions
ĠWisconsin
Ġdance
ĠSaint
archy
Ġbaseball
Ġcontributions
Ġliterature
Ġexha
perty
test
Ġbab
Ġcontainer
letter
Ġfallen
Ġwebsites
Ġbottle
ĠSac
Ġbreast
ĠPL
Ġveteran
Ġinterviews
ĠAle
Ġbanned
engers
ĠRevolution
inth
Ġconcerning
IVE
Ġexpenses
ĠMatthew
ĠColumbia
ds
istance
Ġentity
..."
Ġreliable
Ġparalle
ĠChristians
Ġopinions
Ġindu
low
Ġcompete
Ġthorough
Ġemployed
Ġestablishment
igen
ĠCro
Ġlawyers
ĠStation
TE
ĠLind
ĠPur
itary
Ġefficiency
âĢĲ
ĠLy
Ġmask
Ġdisaster
Ġages
ERE
esis
ĠHold
Ġcasual
bled
Ġenabled
ĠEnvironment
ĠIntelligence
iper
ĠMap
ĠBE
Ġemerged
isdom
Ġcabin
Ġregistration
Ġfingers
Ġroster
Ġframework
ĠDoctor
etts
Ġtransportation
Ġawareness
Her
Ġattempting
Off
ĠStore
ÃĥÃĤÃĥÃĤÃĥÃĤÃĥÃĤ
ĠKnow
Ġdefence
Ġscan
ĠTen
ĠChair
ĠPH
ĠAtlanta
Ġfucking
Ġanswered
bn
ĠKar
Ġcategories
Ġrational
Ġcust
Ġrobot
Ġcorrectly
Ġgif
Ġgraphics
mic
Ġgrounds
ĠOpp
iate
Ġdistributed
Ġsanctions
Ġchallenging
uto
Ġingredients
Ġinvited
Ġfounded
ĠRequ
ded
Ġbowl
Ġbrothers
ĠHa
IO
Ġwages
imore
ocial
Ġseed
atively
Ġaddresses
ĠIowa
abeth
Ġattitude
isd
child
Ġmole
Ġdiscovery
yard
Br
Ġ82
Ġsupplies
elling
Ġdistingu
CR
Ġrecept
Ġvert
Ġswim
bec
door
ĠYeah
Ġgal
Ġinteract
ĠESP
ĠCS
amps
Ġconvinced
Ġobjective
Ġdish
ĠPhotos
lad
Ġdowntown
oil
inction
Ġtomorrow
ĠCOM
Ġsurvival
shot
Ġsettlement
Cons
ĠXbox
interest
ĠSM
argo
eness
Ġethnic
bered
Min
ĠTok
Ġincent
ĠCommand
Ġmaintained
Ġbreaks
bridge
atar
agg
ĠFinally
unicip
ĠOnt
left
Ġrecognition
Ġ*/
ĠPers
Ġwelf
Ġaddressed
ĠKansas
Ġvirus
Ġwhereas
Ġpapers
rams
ĠMinistry
Ġpleasure
Ġacquired
Ġduration
jpg
Ġcalm
ĠNHL
Ġburning
Ġfolder
icked
ĠPy
ĠIllinois
Class
ĠGoddess
Ġperforming
Ġwelfare
jar
Inter
Ġlin
Ġenhance
Ġnotion
fare
ypes
ĠArea
Ġcannabis
ĠDiego
fs
ĠManchester
comm
inite
Ġcovering
ĠSound
Ġ1960
Ġ84
elect
zing
Ġcitizen
Ġphones
Ġraid
Ġignored
ĠObject
Ġupload
card
Ġmodified
Ġrooms
iah
range
heast
achus
Ġsuggesting
âĢĭ
grade
El
Ġclothing
Ġrh
ĠHan
unity
encing
ĠAustin
secution
tra
dem
ĠQual
Ġheaven
Ġstages
Ġwedd
plus
ificial
ĠImm
ĠHo
ieties
Ġphrase
Ġbrill
actory
Ġproviders
Ġsilence
Ġaer
ĠAI
ĠAdventure
Ġplatforms
Ġdemonstrated
Ġinterf
ington
Ġraces
Ġgrade
ultane
ĠThrough
false
Ġbow
ĠAB
Ġflavor
Ġhistoric
gov
Ġcolour
Ġviewed
ĠEmail
elcome
Ġintervention
Ġdiversity
Ġperiods
Ġreverse
ĠVery
Ġquote
ĠLeft
through
Ġscrew
Ġlanding
Ġpill
Ġwet
Ġprotesters
Ġrepeat
aved
erk
Ġsalary
ĠPennsylvania
Still
Ġmayor
Ġkitchen
Ġfeaturing
ĠMuseum
ĠTournament
ĠFal
Ġservers
UC
Ġanybody
img
ĠTrade
ixture
theless
Ġfinance
Ġclosing
ĠPatri
iac
abel
Ġ>>
orous
Ġfirms
screen
una
Ġembarrass
ulse
Ġletting
Ġthrew
iley
Ġchannels
lan
ĠVegas
Ġsear
Ġfantastic
arre
uzzle
ĠDer
Those
Ġswing
Ġsheet
index
cover
ogan
Ġvariables
ĠTech
Ġspoken
achel
ĠDa
ĠMountain
Ġloaded
Ġfootage
version
Ġunl
ĠPhoenix
Ġthrowing
Ġfiring
Ġtracking
Ġwidth
Ġstruggling
rooms
otion
Ġmonthly
ĠServer
Ġeggs
open
MC
Ġ1993
Ġhired
Ġstayed
ĠAllen
Ġstro
Ġ98
step
ĠTurkish
Ġfabric
isting
ĠDom
Ġdates
Ġpron
Ġbasketball
Ġlucky
ĠArabia
Ġassumed
esty
Ġaffairs
Ġglad
ĠIndeed
ĠFA
ĠWord
Ġjoining
ifice
pread
irts
ĠSelect
Ġpopulations
aware
Ġnose
Ġcomplaints
start
Ġscoring
Thanks
Ġmining
Ġvisitors
SH
Ġdamaged
Ġcharacteristics
ĠPent
DC
Ġ83
ĠSix
rates
Ġflags
ĠBrew
dog
Mark
////
Ġexecution
Ġjoke
phones
Ġtestimony
Ġobst
QL
ĠCut
Ġstudied
ĠNintendo
icket
ĠNBC
Ġlad
ĠBra
ĠMoh
Ġkernel
Ġoverwhelming
Ġaged
Ġapplicable
ĠCond
Ġroads
ĠBlock
made
odge
Ġcommands
Ġoffices
veland
Ġtut
Ġreceiver
ĠFro
Ġshopping
ĠiP
ĠStre
ĠABC
Ġentertainment
ĠBow
orted
Mc
Ġreads
grad
ĠCollect
ĠâĪĴ
ĠCapital
ederation
Ġemployer
Ġinvolvement
Ġanxiety
alia
Ġroof
ĠAmong
ĠDemocrat
Ġstats
ĠVill
Ġconstitutional
Ġreferring
itty
Ġtackle
outube
Ġbacked
ĠHong
ĠBroad
Ġele
ĠOtt
Ġ1992
hour
achusetts
Cal
Ġdefeated
Ġ81
esp
Ġseemingly
was
ĠJenn
ĠKurd
Ġgene
Ġdiscount
Ret
ECT
();
Ġclubs
Ġsid
ĠMarsh
Check
Ġpp
ĠEag
idespread
Ġbeings
FT
Ġintroduction
ĠChange
ARD
Ġ110
adows
ierce
Ġmeal
author
ĠBang
lahoma
Ġranks
2011
????
max
Ġcollapse
Ġopens
Ġecho
Ġsoph
Ġracist
Ġenormous
Ġwaves
Ġtap
Ġcomprehensive
.--
ĠRoy
Ġfarmers
Related
aired
rones
ĠCrim
Ġproportion
Ġdesigns
Ġnegotiations
Ġvirtually
ĠBatman
Ġwarn
Ġlegitimate
mate
Ġconvention
,,
netic
ĠSD
Ġconsistently
Ġcompensation
Ġpunishment
Ġye
Ġtie
ĠBureau
irlf
ĠBu
ĠAren
ĠPhilipp
Ġknife
Ġmemories
ĠRoss
Ġangle
Ġ86
ĠThunder
Ġrend
ĠTour
Ġcounts
sung
ĠImp
Ġeducational
Ġaccessible
COM
Ġdrew
yer
Gl
amine
ORT
OB
IB
master
Ġtrials
ogy
har
ĠTrust
Ġpreferred
irlfriend
ĠNev
Ġbin
Ġcow
Page
Ġsignature
ĠBL
700
Ġretired
Ġbytes
Ġneighb
ĠLegend
Ġdevast
Ġsuspected
isons
ĠPokÃ©mon
scale
Ġcapabilities
Ġrevel
Ġcheese
dy
igrant
Ġfailing
bits
ĠHeroes
ĠGhost
ĠScient
Ġappointed
uri
Ġinstitution
Ġexpanded
greg
Ġmonitoring
Ġpodcast
Ġcoalition
Ġ96
Jo
Ġstolen
ĠSab
Ġstops
Ġholiday
Ġintr
Car
Black
ĠLGBT
Ġwarming
ĠAnderson
Ġ89
Ġproducer
Med
Ġaccuracy
ĠMarvel
izabeth
ĠPatrick
mony
Ġmini
acles
Ġovert
they
Ġmembership
ĠVen
Ġexch
Ġremoval
ĠDave
TY
mad
ĠFind
Ġadequ
Ġec
Ġteeth
Ġemotion
Ġperm
Ġsolely
db
Ġextraord
IGHT
cal
Ġguidelines
Ġdying
Ġsuspended
ĠPremier
ĠAnthony
elve
Ġdad
ĠEth
ĠFootball
Ġabandoned
Ġ<<
Ġmarch
Ġhorror
âĢ¦"
Ġchildhood
Ġcampaigns
Ġlunch
ĠAlbert
block
âĸĪâĸĪ
ounding
Ġbone
organ
aders
ĠFlash
ĠDrive
Ġtonight
Ġwars
ĠFL
Ġformation
const
News
Ġcompe
orious
ĠStaff
Ġdiscussions
ĠProtection
ĠJam
Ġcriteria
Ġinstallation
Ġaccomplish
izza
Ġpublisher
Ġrescue
ĠTry
ULL
ĠSom
ĠHop
oret
ths
ordon
Ġpocket
ĠInv
Download
ĠCrime
Ġbene
ĠGuide
ĠAssembly
Ġparameters
IE
ĠAlexander
Ġconcert
ĠSche
Ġshoes
Ġvisiting
Ġrecall
Ġbub
Ġrural
Ġconcrete
ĠRos
Next
Russ
Ġloans
ĠShield
Ġtrem
hemat
kg
ĠHarris
isition
ĠMove
ĠFC
Ġfate
ĠCho
Ġtired
Ġprincipal
hist
iences
athy
Ġsevent
Ġmood
Ġstrategic
Ġdiseases
Ġforum
Ġtempor
Ġheadquarters
Par
ige
flix
Ġguitar
Ġ94
Only
Ġreleases
roph
================================
Ġ600
ĠContinue
igate
ĠCrit
system
Ġdisabled
Ġunexpected
ithub
Ġunclear
ĠEst
Ġcontrad
Ġstrategies
ventures
Ġpassage
AME
Ġimproving
Ġreveals
Ġdecrease
ova
Ġannoy
ĠShort
ĠLibrary
Ġcyber
nell
ĠHur
ĠCB
Ġphotograp
UI
Ġsed
Ge
Ġ87
Ġdiverse
Ġencouraged
Ġconspiracy
Ġbirds
Ġoperator
Ġhandful
Ġclassified
?)
Ġdramatic
Ġinvestigators
ito
Ġwidespread
ĠRoom
----------------------------------------------------------------
Ġcollective
Ġjournalist
String
Ġtemperatures
ila
Ġguid
Ġinspect
Ġmissile
ĠMayor
Ġmanual
Ġsimultane
Ġratings
Ġsuck
Ġ97
Ġuniversal
Ġpharm
Ġdisrupt
iano
AV
Ġft
Ġstatist
olds
ĠWalker
php
Ġundert
ĠLas
ishop
ntil
reshold
ĠWhether
Ms
Ġdeny
ĠCloud
Ġprovider
Ġsurviv
ĠUpdate
has
Ġmistakes
charge
pled
rity
Ġnode
ĠMassachusetts
ools
lication
Ġfails
emale
ori
backs
Ġshirt
Ġ''
ĠNAT
Ġwaters
elson
Ġease
Ġscar
Ġcontents
mind
Ġcontribution
Ġshr
Ġhanded
Ġstability
Ġtrave
Em
Ġmirror
123
Ġweigh
Ġfiction
ouver
istant
rition
ĠFed
Ġphysically
Ġstake
ĠArticle
ĠArc
ĠLewis
ĠMind
Ġdemonstrate
Ġprofits
vision
omic
olid
Ġbattles
Ġdrives
Ġeastern
ĠSony
!!!
aration
vard
ĠGL
portation
Ġ92
Ġlawmakers
Ġprotecting
ĠEPA
Ġyeah
Ġshame
olph
even
xit
Ġattach
Ġrepresenting
Ġobs
ĠUtah
iffs
ĠFreedom
Ã³
AK
Ġincidents
itage
Ġviewers
cd
Ġmouse
Ġclar
Ġaccordance
Ġbot
cor
ĠSummer
held
Ġinnocent
Ġinitiative
ols
________________________________
Ġspots
pace
Ġconventional
Ġcorporations
Ġblocked
HD
attered
Ġrefers
Ġbuck
ĠDigital
120
Ġtopics
TF
Äģ
brid
reement
Ġunderlying
ĠMember
Ġinvestigating
Ġpregnancy
Ġtouchdown
ĠBand
ĠCaller
Ġinstances
PP
wa
Good
Ġ1991
ĠCold
Ġfears
Ġremarks
ĨĴ
atal
Ġmit
Ġexperiments
ipt
Color
indu
Update
Ġ93
Ag
Ġå
ancouver
Both
Ġjudges
Object
Ġstere
umbn
Ġparticipation
ĠStars
ĠJere
Ġweekly
ĠBan
Ġconversations
ĠPitt
uz
ĠIndiana
ĠKick
Ġinfection
Ġheroes
Ġsettled
Ġstrip
Ġhal
Ġdump
ĠSci
Ġles
Ġreferences
ĠURL
ĠBridge
Ġwanting
Force
Ġexclus
Meanwhile
mn
Ġgentle
maker
senal
ĠGro
ouri
ĠRain
ĠAlliance
Ġlift
ela
SD
ĠCleveland
Ġranked
Ġstadium
Ġdeadly
ä¸
Ġriding
aria
ĠArmor
Ġdocumentation
ĠGreece
reek
Ġlens
ĠSa
Ġgross
ĠEmer
agers
ĠDub
ĠRh
ĠAMD
Ġarrival
Ġdesert
Ġsupplement
ĠResp
Ġknee
Ġmargin
font
ogg
2010
ĠPir
ĠProm
ivals
Ġintake
Ġdifferently
ugs
Ġbits
cluded
Ġsearching
ĠDu
umble
Ġfunctional
ĠBaltimore
ĠCould
Ġdesired
Ġcircuit
ĠLyn
ĠGO
ĠFalse
repre
':
alties
Ġminim
Ġdrove
ĠShould
Ġhip
Ġpros
Ġutility
ĠNature
ĠMode
President
opp
rat
formance
Ġconcentration
Ġfont
ĠBud
Ġamid
Ġrevers
ĠML
Bar
Ġinteraction
Ġjurisd
Ġspells
dep
fil
Ġcivilians
utter
ĠCooper
ĠBelow
Ġentrance
Ġconvert
Ġcontroversy
owered
Ġcontrary
Ġarc
ĠExecutive
ĠOfficer
Ġpackages
Ġprogressive
width
Ġreserved
vol
ĠSamsung
Ġprinted
Ġcenters
Ġintroduce
ĠKennedy
Ġodds
Ġsurely
Ġindependence
Ġpassengers
reprene
ĠBeh
Ġloves
ĠESPN
Ġfacilit
Ġidentical
Ġdoct
Ġpartnership
conf
ĠHide
Ġconfused
ĠCow
Men
Ġwrest
ĠIraqi
Ġholes
ĠStudies
Ġpregnant
hard
Ġsignals
IX
Ġpulling
Ġgraduate
Ġnominee
Date
Ġpermitted
ĠâĤ¬
ĠOklahoma
Start
Ġauthorized
Ġalarm
ĠCos
van
Ġgenerations
cular
Ġdragon
ĠSoftware
ĠEdward
Ġcontroller
Sen
gered
ĠVik
Ġapproached
Thank
Ġcance
Ġformula
ĠSmall
Ġweakness
Ġramp
itudes
jud
Ġbrilliant
Ġaccus
source
Ġ800
ĠEvil
Sw
Ġhomeless
week
iens
rics
ĠThird
TO
Ġorganic
Ġpresentation
agh
ĠDownload
vation
Ġassembly
orable
holders
ĠBernie
ĠHelp
Ġtong
ĠFight
Ġbeach
Book
ĠLic
Ġrush
ĠRound
oup
ĠMarx
Ġcalculated
ĠDevil
ĠSarah
Ġoccasionally
Ġbullet
Available
gate
Ġ91
Ġhosp
Ġpromises
ĠHIV
ĠStadium
ĠStock
ĠCorporation
gage
NG
ĠCredit
Ġsne
ibl
Ġaccum
such
Ġterrorists
Ġconsciousness
ĠZh
Ġdrama
oola
piration
Ġlabour
ĠNin
Ġutter
Ġdemocratic
Ġassass
ilation
Ġgest
Ġabroad
Ġmetab
Ġsorts
Ġflav
UB
Ġmg
ĠNothing
ĠOd
Ġmusical
2009
Ġdrops
ocated
ateral
000000
Ġgre
Ġequality
Ġburden
Ġvig
ĠLeader
------------
Ġceremony
Ġfighter
Ġactors
Ġæ
aman
Fi
Ġalign
puter
Ġelder
ĠNSA
Ġrepresentation
ĠOntario
ITH
usalem
Ġharassment
itzer
Ġsymp
Ġboxes
ĠDR
Ġmanifest
atre
Ġ^
Ġdies
leton
Ġmissions
ethe
Ġresolve
Ġfollowers
Ġasc
Ġkm
lord
ammed
Ġsilent
ĠAssociated
Ġtiming
Ġprisoners
ĠKings
ĠFive
Ġtower
Ġapproaches
Ġprecisely
Ġbureau
ĠMother
ĠIss
Ġkeyboard
itual
Ġfunded
Ġstaying
Ġpsychological
Ġmile
ĠLeon
ĠBarb
will
Ġwider
ĠAtlantic
Ġtill
ĠRome
rot
Ġaccompan
Ġflour
aco
World
ĠExpress
ĠYu
Cor
Ġpleased
party
Ġpointing
Ġinflation
Ġroy
Ġ),
ainer
Ġwedding
ormon
Ġrequiring
Ġqualified
Ġsegment
END
Ġsizes
eals
Ġcorrupt
assador
Ġceleb
Ġdreams
ĠMess
Ġchecking
ĠVersion
Ġpreparing
Ġactively
ĠDiff
Ġlux
ĠWinter
acteria
ĠNE
Ġdeputy
Ġtransgender
Ġsummary
Ġinher
eries
char
ĠYan
Ġknock
ĠPath
Ġlip
roller
Ġimpression
Ġcelebrate
Ġslide
Ġguests
Ġclip
FS
Ġsavings
Ġcaptain
Ġlegacy
ĠDenver
Ġwounded
taboola
ACT
Ġpursue
Ġoxy
Ġq
Ġsemi
ĠNeed
ĠAffairs
Ġobsc
Ġchecked
Ġdual
Code
ĠMD
lem
ulty
ĠÂ©
ĠElizabeth
Ġcenturies
arded
src
Ġevident
ennis
atin
Ġunemployment
ĠMario
Ġintim
Christ
Ġbiological
Ġsoldier
ĠAdded
Ġmath
ĠGil
Ġbias
Ġdating
ĠOcean
Ġmice
Mus
hire
ĠTes
Server
limited
Size
Ġmeters
Ġrocket
essee
Ġcertificate
ĠIranian
ASS
Ġgrid
Dec
Ġrolling
commun
ĠSweden
bury
Ġtissue
Ġracism
ĠLocal
Ġmystery
Ġexamine
Ġstem
Ġsits
Ġhoped
oting
Ġdialogue
Ġpersu
Watch
lay
MAN
Ġchronic
ĠPortland
market
ĠSEC
Ġparallel
Ġscandal
Ġcarries
Ġphenomenon
human
acker
ĠOx
Ġretirement
tainment
ovie
ĠGear
Ġduties
Ġdose
Ġscroll
MB
inf
Ġsauce
Ġlandscape
reddit
ĠChampionship
ĠReddit
alid
Ġcoin
Ġovers
Ġposting
about
Ġfel
andy
Ġbold
Ġfocusing
effect
GR
Ġdeemed
Ġrecommendations
Ġstepped
Ġvoter
ĠDeep
ĠInstagram
Ġmoderate
ĠMaryland
Ġrestricted
ĠMB
ĠChall
Ġtob
Ġcir
ĠOcc
ĠEver
Ġcollaps
INFO
=-
ĠPict
ĠAccount
nc
Ġought
Ġexport
Ġdrunk
('
Ġwise
ĠMort
necess
Ġancest
ĠIncre
Ġfrequent
mir
Ġinterpretation
Ġdependent
Ġcoins
ĠBol
Video
ĠJustin
Ġfatal
Ġcooking
Ġconfusion
ipher
Ġcustody
ĠMorgan
omach
ĠGovernor
Ġrestaurants
eling
Ġacknowledged
Ġther
Ġgenes
ching
Hey
Ġtactics
ĠMexican
Ġvend
Ġhes
quer
Ġnoting
ĠCameron
Ġtargeting
rock
Ġcredits
Ġemotions
Ġrepresentatives
news
Ġlegislative
Ġremoving
Ġtweeted
ĠCarter
ĠFixed
Ġforcing
Ġspeaker
Ġmales
ĠVietnam
lined
Ġconcepts
Ġvoices
oir
ĠTrib
Whe
ĠJerusalem
ĠSant
Ġcul
Ġlady
ĠHawai
Ġarts
ĠInn
ĠMachine
ĠEmperor
Ġslot
gly
ĠProcess
III
Ġathletes
ĠTemple
ĠRepresent
Ġpresc
Ġtons
Ġgolden
Ġpunch
ĠGR
iverpool
Ġenact
Ġlobby
Ġmos
Ġpicking
Ġlifetime
Ġcognitive
Each
zo
Ġdub
Ġconsists
oln
Ġfestival
amous
Ġintellig
words
ĠSmart
Ġdele
Ġlapt
Ġmagical
ĠSin
bus
urities
ighth
ĠRuby
ĠSure
olving
Ġjun
OST
Ġimposed
Ġastron
Ġcorrel
ĠNS
ĠKit
ĠFuture
burn
Ġimmune
ocus
Ġcourses
ĠString
Ġlean
Ġghost
Ġoutcomes
Ġexpense
Ġeveryday
Ġacceptable
Ah
Ġequipped
Ġorange
FR
ĠDutch
Though
ĠRank
QU
ĠRoberts
what
rend
Ġdisappear
Ġspawn
ĠLam
ois
Ġdeserve
Ġminimal
Ġnervous
ĠWould
Ġrook
ĠVancouver
Ġresign
shire
ĠWorks
ĠBuild
Ġaffordable
ĠGary
ĠArena
Ġhanging
Ġimplications
ĠSong
Ġmaintaining
Ġguards
CON
Ġderived
Ġexecuted
Ġtheories
Ġquoted
ĠAndre
oga
seless
info
ĠBelg
Ġtears
ĠSurv
Ġbirthday
igious
immer
Ġspectrum
Ġarchitecture
Ġrecruit
arma
Table
Ġmonsters
ĠGov
Ġdestination
Ġattractive
Ġfoss
ĠMoreover
Ġpresents
THE
Ġreply
pton
Ġcum
Ġdelight
Ġaffects
Ġdonations
ĠToy
ĠHim
MENT
Ġovercome
itched
ĠFantasy
ĠHat
ĠBeast
bott
Ġinvestigations
Run
Ġhunting
di
fund
Ġsessions
estyle
Ġportray
oids
Yeah
Ġcommunicate
Ġcomedy
ĠYang
Ġbelt
ĠMarine
Ġpredicted
Play
Ġimportantly
Ġremarkable
Ġeliminate
David
Ġbind
VID
Ġadvocates
ĠGaza
imp
DB
ĠNa
ĠSimilar
IES
Ġcharity
vas
math
Ġâĸ
oker
ndum
Ġcaps
ĠHal
2000
ean
Ġfleet
Ġrecre
Right
Ġsleeping
ijing
kind
Ġdesignated
Ã¤
Ġanimation
kee
ĠIntrodu
Ġ/>
Ġdelayed
Ġtremend
Ġcurious
Use
Ġlect
dam
Ġinnovation
ĠPoints
Ġloading
Ġdispute
ctic
irds
ĠBY
Ġnurs
ĠValue
IONS
ĠHum
Ġtemplate
mers
Ġappearances
ĠEntertainment
Ġtranslation
Ġsake
Ġbeneath
Ġinhib
Ġeuro
abetes
Ġstudying
ĠMas
Ġperceived
Ġexamined
Ġeager
Ġcoaches
Ġimper
chi
Ġproduces
").
ĠEveryone
Ġmunicip
Ġgirlfriend
Ġhire
ĠVice
Ġsuitable
opy
Ġinequ
ĠDuke
fish
first
ĠObs
Ġinterior
ĠBruce
ĠRy
Ġanalys
Ġconsiderable
Ġforecast
Ġfert
orship
ĠDrug
ĠALL
:"
thur
ĠMail
Ġballot
Ġinstantly
ĠChannel
Ġpicks
Ġ1989
Ġtent
oli
Ġcivilian
bling
ello
bu
Ġinch
Ġlogo
Ġcooperation
Ġwalks
Ġinvestments
Ġimprison
ĠFestival
ĠKy
Ġlegally
Ġgri
charg
Sl
Ġthreatening
duction
flow
Ġdismissed
ibraries
cap
ele
ĠMcG
ĠHarvard
ĠConservative
ĠCBS
png
Ġroots
ĠHaving
umbled
ĠFun
\/
ĠSearch
plex
Ġdiscussing
Ġcontinu
ĠTai
ĠWik
Free
fit
Ġrefuse
Ġmanaging
Ġsynd
ipedia
walk
Ġprofessionals
Ġguidance
Ġuniversities
Ġassemb
untu
Finally
ASE
ĠAuto
ĠHad
Ġanniversary
LD
ĠDur
ĠUltimate
ihad
product
Ġtransit
Ġrestore
Ġexplaining
Ġasset
Ġtransferred
Ġburst
apolis
ĠMagazine
ĠCra
ĠBR
gged
ĠHE
Mich
bet
ĠLady
ylum
erves
Ġmeets
white
Log
Ġcorresponding
Ġinsisted
GG
Ġsurrounded
Ġtens
Ġlane
Ġcoinc
home
Ġexisted
ected
ĠDouble
lamm
Ġskept
exp
Ġperception
iev
ĠBeing
oft
Ġadopt
.:
];
Windows
Ġsatellite
ASH
Ġinfant
description
ĠMeanwhile
cm
oca
ĠTreat
actor
Ġtobacco
ĠNorm
emption
Ġflesh
Ġje
oop
ĠHeaven
Ġbeating
anim
Ġgathering
Ġcultiv
GO
abe
ĠJonathan
ĠSafety
Ġbadly
prot
Ġchoosing
Ġcontacted
Ġquit
Ġdistur
Ġstir
Ġtoken
Det
ĠPa
Ġfunctionality
003
some
Ġlimitations
Ġmeth
build
config
NT
rell
blem
ĠMom
Ġveterans
ĠHu
Ġtrends
arer
ĠGiven
ĠCaption
may
AST
Ġwondering
ĠClark
normal
Ġseparated
Ġdesp
stic
brew
Ġrelating
ĠNik
ĠFarm
Ġenthusi
good
deb
Ġactivist
Ġmart
Ġexplosion
ĠEconomic
Link
Ġinsight
Ġconvenient
Ġcounterpart
support
ĠVirt
agen
ĠTennessee
ĠSimon
ĠAward
OCK
ĠFigure
Ġoverseas
Ġpride
ĠCas
note
mg
Current
Ġdisplays
content
Ġtraveling
Ġhospitals
ĠFinancial
ĠPast
Ġdefendant
Ġstreaming
mble
ĠBerlin
uki
Ġdistribut
Ġantib
Ġchocolate
ĠCastle
Ġinterrupt
ĠRow
Ġconversion
Ġbugs
ĠRather
liest
LY
ĠJean
common
akh
Ġ130
otton
ĠDean
Ġamendment
Ġgameplay
ĠWarren
oda
Ġhighlights
Ġirre
ĠNATO
Ġballs
Ġdemanding
URE
ĠLuke
Figure
stop
onia
zone
izers
ĠWR
Ġawarded
Ġregulatory
ĠHart
ĠSN
pling
Ġsour
ĠPixel
usive
Ġfet
ĠSent
Ġautomatic
Ġfer
vernment
ĠKhan
TON
father
Ġextraordinary
throp
ĠPython
ĠGPU
Ġsexually
Ġdesktop
itivity
ĠAntonio
Ġorient
Ġears
obby
ouses
vertisements
Ġmanufacturers
icient
minute
Ġconviction
Ġgarden
public
Ġsatisfied
fold
OK
Ġinhab
ĠThink
Ġprogramme
Ġstomach
Ġcoordin
Ġholy
Ġthreshold
Ġrhet
Ġserial
Ġemployers
ĠEverything
rah
Ġbother
Ġbrands
Value
ĠTed
ĠPlanet
Ġpink
ĠFurthermore
sa
PE
reck
ĠUSD
otte
Ġ&&
Ġlanded
gets
Ġproducers
Ġhealthcare
Ġdominant
Ġdestro
Ġamended
chron
Ġfits
ĠSyd
ĠAuthority
ATCH
Ġfights
ĠLLC
Ġ---
ĠCorp
Ġtoxic
specific
ĠCorn
ĠChel
Ġtelephone
ĠPant
Ġmysterious
aunch
odox
media
Ġwitnesses
agu
Ġquestioned
ĠBrexit
ĠRemember
enez
Ġendorse
iatric
ĠIdent
Ġridiculous
110
Ġprayer
Ġscientist
Ġ1950
ĠAqu
Ġunderground
ĠUFC
mare
ĠLater
wich
Ġsubscrib
Ġhosts
Ġerr
Ġgrants
antom
Ġsummon
early
ĠClear
ĠPrim
Ġsuspension
Ġguaranteed
apper
Ġrice
ĠSean
ĠShin
Ġreferendum
Ġfled
rust
Ġ360
tery
Ġshocked
BR
ĠOil
ĠAllah
Ġpartly
Ġignor
Ġtransmission
Ġhomosexual
iversal
Ġhopefully
ãĤ¤
Ġlesson
Leg
Ġ..
Yet
table
appropri
rett
Ġboards
Ġincorrect
Ġbacteria
aru
amac
Ġsnap
.'"
Ġparad
tem
heart
Ġavailability
Ġwisdom
Ġ(+
Ġpriest
ĠÂłĠÂł
Open
Ġspan
Ġparameter
Ġconvince
Ġ(%)
rac
Ġfo
Ġsafely
Ġconverted
ĠOlympic
Ġreserve
Ġhealing
ĠMine
Max
Ġinherent
ĠGraham
Ġintegrated
Dem
Ġpipeline
Ġapplying
Ġembed
ĠCharlie
Ġcave
2008
Ġconsensus
Ġrewards
Pal
ĠHTML
Ġpopularity
looking
ĠSword
ĠArts
')
Ġelectron
clusions
Ġintegrity
Ġexclusively
Ġgrace
Ġtorture
Ġburned
two
Ġ180
Produ
Ġentreprene
raphics
Ġgym
ricane
ĠTam
Ġadministrative
Ġmanufacturer
Ġvel
ĠNi
Ġisolated
ĠMedicine
Ġbackup
Ġpromoting
Ġcommander
Ġflee
ĠRussell
Ġforgotten
ĠMissouri
Ġresidence
mons
Ġresemb
Ġwand
Ġmeaningful
PT
Ġbol
Ġhelic
Ġwealthy
Ġrifle
strong
rowing
plan
asury
âĢ¦.
Ġexpanding
ĠHamilton
Ġreceives
SI
eatures
ĠAnim
REE
Put
Ġbriefly
rive
Ġstimul
Ġ``(
Ġ__
Ġchip
Ġhaz
Ġprize
ĠThings
ACE
ulin
dict
oku
Ġassociate
ockets
youtube
Story
ategory
Ġmild
ailing
ĠYe
Orig
ĠKa
orig
Ġpropaganda
Ġanonymous
Ġstruggled
Ġoutrage
ATED
ĠBeijing
rary
Ġleather
Ġworlds
Ġbroader
125
idal
ĠBetter
Ġtear
Ext
Ġproposals
Ġiter
ĠSquad
Ġvolunt
mi
Did
ĠPu
pin
Ġspeakers
Ġborders
Ġfigured
='
Ġsimultaneously
aeda
Ġcharging
Ġurged
Ġconj
256
ĠGordon
merce
Ġdocumentary
Share
itol
ONE
ĠGarden
hatt
ĠThompson
aneous
apore
Ġtanks
Ġlessons
track
Ġoutstanding
Ġvolunteers
Ġspray
Ġmanagers
large
Ġcamps
Ġartificial
ĠRu
Ġbags
thal
Ġcompatible
ĠBlade
Ġfed
Ġargues
FI
Ġunfair
Ġcorn
Ġoffset
Ġdirections
Ġdisappointed
ĠConvention
Ġviewing
ME
ocity
Ġtowns
Ġlayers
Ġrolled
Ġjumped
Ġattribute
Ġunnecess
incoln
Ġsuppose
ĠNether
cha
Ġburied
Ġsixth
Ben
ressing
OUR
Ġwound
Ġcycl
Ġmechanisms
Ġcongressional
ĠElement
Ġagreements
Ġdecor
Ġclosest
ĠMit
Google
}}
Ġmixture
Ġfluid
Sign
ĠScholar
Ġpist
asket
abling
Ġracing
hero
riel
assy
Ġcheaper
ben
Ġvertical
amacare
ĠReading
gments
Ġhelicop
Ġsacrifice
aya
paren
VA
ĠLes
ĠStudio
Ġviolations
ĠAnna
acer
é¾
ĠRat
ĠBeck
ĠDick
ĠACT
Ġcomposition
Ġtexture
ĠOwn
Ġsmartphone
ĠNA
Ġforb
import
Ġdefending
ilst
rer
Ġoh
ĠJeremy
Ġbanking
ceptions
Ġrespective
/.
Ġdrinks
ĠWi
Ġbands
ĠLiverpool
Ġgrip
ĠBuy
Ġopenly
Ġreviewed
pert
Ġverify
ĠCole
ĠWales
MO
Ġunpre
Ġshelter
ĠImperial
Ġgui
ĠDak
Ġsuggestions
Ġexplicitly
Ġslave
Ġblockchain
Ġcompeting
Ġpromising
SON
Ġsoccer
Ġconstitution
429
Ġdistract
ĠUser
esides
ĠMethod
ĠTokyo
Ġaccompanied
Client
sur
alog
Ġidentification
Ġinvasion
asma
Ġindustries
ppers
Ġsubtle
ĠUnit
natural
Ġsurvived
Ġflaw
ĺħ
ĠHoll
Ġdeficit
Ġtutorial
ĠChance
Ġarguing
Ġcontemporary
Ġintegration
forward
Ġtum
itis
Ġhiding
ĠDomin
ĠTan
ĠBuilding
ĠVin
Ġspokesperson
ĠNotes
Ġemerging
Ġpreparation
Ġprost
Ġsuspects
Ġautonom
Description
Ġdealt
ĠPear
Ġsteady
Ġdecreased
Ġsovere
ĠClin
Ġgradually
orses
ĠWAR
Serv
ãĤ¢
hr
Ġdirty
ĠBarn
ĠBC
Ġdil
Ġcalendar
Ġcompliance
Ġchamber
bb
Ġpassenger
ateful
ĠTitle
ĠSydney
ĠGot
Ġdarkness
Ġdefect
Ġpacked
assion
Ġgods
Ġharsh
ICK
leans
Ġalgorithm
Ġoxygen
Ġvisits
Ġblade
Ġkilomet
ĠKentucky
Ġkiller
Pack
enny
Ġdivine
Ġnomination
being
Ġengines
Ġcats
Ġbuffer
ĠPhill
Ġtraff
AGE
Ġtongue
Ġradiation
erer
mem
ĠExplicit
é¾į
Ġcouples
Ġphysics
ĠMcK
Ġpolitically
awks
ĠBloom
Ġworship
eger
uter
ĠFO
Ġmathemat
Ġsentenced
Ġdisk
ĠMarg
Ġ/*
PI
Ġoptional
Ġbabies
Ġseeds
ĠScottish
Ġthy
]]
ĠHitler
PH
ngth
Ġrecovered
inge
Ġpowder
Ġlips
Ġdesigner
Ġdisorders
Ġcourage
Ġchaos
"},{"
Ġcarrier
bably
High
ĠRT
esity
len
Ġroutes
uating
Fil
NOT
wall
sburgh
Ġengaging
ĠJavaScript
orer
lihood
Ġunions
ĠFederation
ĠTesla
Ġcompletion
ĠTa
Ġprivilege
ĠOrange
Ġneur
parency
Ġbones
Ġtitled
Ġprosecutors
ĠME
Ġengineer
ĠUniverse
ĠHig
nie
oard
Ġhearts
ĠGre
ussion
Ġministry
Ġpenet
ĠNut
ĠOw
ĠXP
instein
Ġbulk
System
icism
ĠMarketable
Ġpreval
Ġposter
Ġattending
urable
Ġlicensed
ĠGh
etry
ĠTradable
Ġblast
à¤
ĠTitan
elled
die
Have
ĠFlame
Ġprofound
Ġparticipating
Ġanime
ĠEss
Ġspecify
Ġregarded
ĠSpell
Ġsons
owned
Ġmerc
Ġexperimental
lando
hs
ĠDungeon
inos
Ġcomply
ĠSystems
arth
Ġseized
local
ĠGirls
udo
oned
ĠFle
Ġconstructed
Ġhosted
Ġscared
actic
ĠIslands
ĠMORE
Ġbless
Ġblocking
Ġchips
Ġevac
Ps
Ġcorporation
Ġox
Ġlighting
Ġneighbors
ĠUb
aro
Ġbeef
ĠUber
Facebook
armed
itate
ĠRating
ĠQuick
Ġoccupied
Ġaims
ĠAdditionally
ĠInterest
Ġdramatically
Ġheal
Ġpainting
Ġengineers
MM
ĠMust
Ġquantity
Paul
Ġearnings
ĠPosts
stra
ãĥ¼ãĥ
Ġstance
Ġdropping
script
Ġdressed
Make
Ġjustify
ĠLtd
Ġprompted
Ġscrut
Ġspeeds
ĠGiants
omer
ĠEditor
Ġdescribing
ĠLie
mented
Ġnowhere
ocaly
Ġinstruction
fortable
Ġentities
Ġcm
ĠNatural
Ġinquiry
Ġpressed
izont
forced
Ġraises
ĠNetflix
ĠSide
Ġouter
Ġamongst
ims
owski
Ġclimb
never
Ġcombine
ding
Ġcompr
Ġsignificance
Ġremembered
ĠNevada
ĠTel
ĠScar
ĠWarriors
ĠJane
Ġcoup
bas
Ġterminal
,-
OH
Ġtension
Ġwings
ĠMyster
ï¿½ï¿½ï¿½ï¿½
ĠUnlike
valid
vironments
ĠAli
Ġnaked
books
ĠMun
ĠGulf
Ġdensity
Ġdimin
Ġdesperate
Ġpresidency
Ġ1986
hy
IND
Ġunlock
imens
Ġhandled
ĠEb
Ġdisappeared
Ġgenre
Ġ1988
Ġdetermination
Stream
iko
apters
Ġacknowledge
Jan
Ġcapitalism
Pat
Ġ2020
Ġpainful
Ġcurve
Ġbombs
storm
ĠMetal
encer
ĠFig
ĠAaron
anches
Ġinspiration
Ġexhaust
tains
ashi
Ġdescript
Ġritual
ĠChelsea
Ġpromotion
ĠHung
ĠWard
iva
ĠET
Ġtoss
allow
ĠFrancis
Dep
Ġhappiness
ĠGlass
Ġbeta
Ġstrengthen
NE
oa
Ġbuttons
ĠMurray
Ġkicked
Quest
ĠTalk
ĠSeveral
ĠZero
Ġdrone
ulk
Ġcam
ĠMobile
Ġpreventing
Ġretro
ĠAx
Ġcruel
Ġfloat
.),
Ġfiling
ĠGrant
ĠBor
Ġrib
Ġchampionship
ĠMerc
Ġstyles
Ġcake
Ġbuilds
ĠSelf
iox
Ġepic
oyd
Bel
ĠStew
.(
ahu
ĠBeyond
Ġouts
Ġsolo
ĠTree
Ġpreserve
Ġtub
ARE
roc
ĠImpro
ĠWright
Ġbund
Ġtraged
Ġoccasional
bian
Second
rons
Ġinteractions
formed
sing
Ġowns
Ġhockey
General
Ġlogical
Ġexpend
Ġescal
ĠGriff
ĠCrown
ĠReserve
Ġstopping
Ġexcuse
second
Ġoperated
Ġreaches
ĠMalays
Ġpollution
ĠBrooklyn
Ġdelete
Ġhash
Block
aha
âĢ³
Ġshorter
piece
></
Ġhorm
ĠWat
ĠBreak
Ġprohibited
Ġintensity
ĠAlan
Ġliability
?!
anded
Ġneighbour
ĠCollection
Ġfires
Ġrevolutionary
fly
ĠOrleans
White
ĠWrit
ĠDawn
Ġsettle
Ġexecute
BM
Ġspokeswoman
Ġlifestyle
Ġclicking
ĠKill
ĠLiberal
ĠNazi
Ġtrailer
Ġmountains
Ġdamn
zes
pes
Ġpressing
Ġbail
ĠOrganization
Ġpir
Ġthirty
Ġelectrical
Ġ115
ĠPoly
ĠRap
ĠStrike
ĠCann
Ġdemanded
Ġbacking
default
speed
ĠLegisl
Ġmothers
ĠBody
Ġvariation
cedented
powered
leading
Never
Ġgrave
ĠAnti
AW
Ġinterviewed
ĠGab
ĠFat
Ġrookie
uu
Ġdepos
ixon
Ġampl
retion
ĠHeat
Ġpeaceful
SM
ieve
Ġdiver
ĠVictoria
Ġmic
pdf
Ġstating
Ġlung
Ġcriticized
Ġvaccine
ĠLoading
urse
Take
ĠFran
ĠSold
ĠRobin
Ġdetected
ĠScript
Ġadjusted
Ġsenator
Ġopposing
Error
Count
Ġconflicts
Ġow
ĠArgent
Ġmatching
hh
ĠTrek
starter
"),
ĠAF
oder
xxxx
ĠAlt
acre
ĠPick
ĠSolar
ĠDal
Oct
ĠBatt
Ġsrc
Ġengagement
Ġexecutives
Ġliberty
java
Ġtalented
igenous
Ġconsecut
.....
Info
Ġhorrible
Ġsurprisingly
feed
icating
ĠLED
Ġfemales
Station
eller
ĠOakland
Ġmechanical
iology
ĠVar
Ġrobust
ettings
otta
Ġtheoret
Ġretain
kward
Ġda
Ġdeployed
del
ĠAndy
Ġsubscribe
web
Ġna
ĠMichel
Ġpartially
ĠComey
Ġcrown
ĠMaj
ĠBlu
rator
Day
INT
Ġdocumented
ĠGDP
gi
chell
Ġbrutal
ĠBab
stration
Ġtheft
Ġtube
@@
Ġquery
ĠLincoln
Ġpublishing
Ġwore
orical
Ġric
Ġnotable
Ġsubsequently
nex
Ġobserve
ĠBoe
Ġcodes
main
WH
ĠSL
Ġresidential
avan
Ġmas
arest
adeon
OUT
Ġsophistic
ante
Ġcens
Ġ**
Ġmortality
Ġyours
Ġoccasions
Ġrecalled
ĠDriver
Ġvocal
Ġbathroom
Ġshops
Ġcollaboration
ĠObamacare
ĠCell
Char
Super
Cre
Ġtends
Ġtorn
Ġeconomics
avery
ĠRaid
ĠSem
Ġshoulders
Ġexpecting
Ġexamination
ename
ĠUI
iability
olas
ĠAmb
ĠDra
Ġmidfield
ĠIC
Ġlayout
Ġfloating
fi
itative
Ġtremendous
ĠÐ
Ġabund
Work
ĠLightning
Ġsimilarly
Ġconservatives
Ġpray
BE
izarre
Ġtempt
Ġemphasis
ĠMetro
Ġfishing
Ġmarry
neg
ĠStudy
Ġreck
Ġdispos
oning
bsite
Ġsuspic
Ġmerch
ĠGib
ĠDescription
ĠDVD
whe
ĠYemen
Ġenvironments
ooting
ĠModern
eu
Ġreflects
Ġhoney
Ġanalyst
Ġgut
dec
Action
Ġhouseholds
Ġster
Ġtemple
Ġreforms
Ġfavourite
Ġdeadline
ĠLE
Three
ĠWithin
Aug
Ġnights
elta
Ġinvalid
ĠExchange
ĠDelhi
when
income
ĠðŁ
Ġwireless
scribe
ista
Ġhostile
Ġally
Ġgig
Ġoutlets
ĠDor
EMENT
Ġash
Ġabstract
ORD
ĠMotor
Ġadviser
istle
Ġbases
Ġcourtesy
Ġcrossing
Ġcleared
Ġrefugee
cosystem
Ġthrows
fun
bourne
days
Ġdisagree
ĠNative
Ġreflected
ĠFast
ĠYellow
ĠSingapore
ĠRaven
Ġembrace
ĠKu
ĠChen
ĠEarly
Ġappointment
ĠMini
itement
Ġplacing
Ġbicy
SR
Ġwhis
SU
Ġinvestigated
Ġphotographs
github
ĠBeat
ĠRing
ighed
iar
Ġevolved
erald
Ġdun
Ġhub
IAL
Ġencouraging
ĠPrint
ĠDays
Ġprosecution
Ġpants
azy
live
Ġfossil
ĠJu
Ġrocks
udge
ĠRace
Ġgreet
bie
Ġfilling
ĠLen
Ġdiabetes
Ġfirearms
uming
enezuel
ĠBB
Ġaccepting
ATH
Ġresort
Ġhunt
rik
ucker
aments
Ġsustained
Ġcrossed
Ġbreakfast
Ġattributes
lected
atile
Ġvibr
ĠKal
arson
oples
Ġtouched
Ġdamages
Ġimpressed
rup
Ġanch
ĠAdams
Hel
ĠVictor
Ġmounted
ĠCC
Ġdelicious
span
ella
Ġelabor
amples
Ġdefic
Ġconstitu
uates
ĠMission
ĠTher
ĠMonster
bes
Reuters
ĠIndones
hill
munition
Ġconfirmation
ĠConsider
acent
Ġjet
ĠEmploy
ĠGTX
nan
ĠSpider
Ġprocessor
Ġpatri
ĠPentagon
ĠRobinson
Ġrealistic
Ã±
Ġappearing
Ġpipe
omed
Ġfru
Ġawful
Ġevaluation
Ġintelligent
ĠCitiz
Ġfundra
odium
Ġtweets
Ġworn
pring
Ġkidn
Ġrebels
ĠKam
ĠNetherlands
ĠSW
Ġacquisition
ĠMale
ãĥª
ombies
Ġtradem
ĠStatus
Bre
ĠTHIS
Ġadverse
ĠNEW
sign
Ġorganisation
enc
ĠHarper
apor
ĠMembers
ĠPeace
ĠAirport
ĠOthers
Ġscratch
ĠPil
Ġsensor
Ġadoption
ĠHotel
ĠDrag
Ġhonestly
Ġyard
ĠForces
Ġpatent
Ġbass
Ġquietly
Ġbreathing
Ġpose
iors
ĠJess
static
ITE
Offic
Ġjew
wcs
Ġ140
Ġpreview
ippi
Ġunfortunately
okemon
Ġhorn
Ġreass
Ġpeer
ocker
Ġunto
ĠGray
Ġcleaning
Ġattracted
2007
Point
kill
ĠAgreement
urches
Ġhorr
ĠMississ
Ġworthy
Ġflowers
town
dll
Ġreactions
Ġdece
Ġindicating
MD
Ġpreference
ĠMVP
essional
ĠTarget
gence
ĠIndians
Ġmisc
Ġfreely
Ġmuscles
Ġlineup
Ġimpacts
ousing
omi
acular
Ġcontrolling
agine
cery
hell
Ġranking
ĠNich
ĠAve
128
Ġhighway
Ġincons
Ġbinding
Ġstruggles
ĠPittsburgh
Ġgray
rin
Ġcomics
ĠSport
Ġrelatives
Ġfright
Ġprobe
ĠPortug
Ġvoc
Ġtu
ĠCorps
Ġpossibilities
Ġqualify
wcsstore
Ġlibraries
Ġmigrants
Ġentries
Ġconsecutive
vals
ĠChairman
Ġhill
IME
ĠGard
Ġinequality
fox
ĠSave
Ġcort
claimed
Ġtraits
Ġpour
Ġmissiles
Ġessence
Ġsends
Ġalliance
Ġwishes
ĠChristopher
Big
NY
ĠJacob
san
urred
ĠSO
lly
Ġadvocate
ĠBond
Ġ"/
Using
Ġdistricts
ĠGate
ĠBir
ridge
ĠNaz
ĠRs
boards
ĠGa
ĠReagan
Ġinfluenced
1000
apy
Ġchallenged
Ġbarg
Ġfaculty
ĠFif
Ġacquire
Ac
Ġinsect
Ġinstruments
Ġleaf
thodox
Message
Ġtale
Ġthereby
Ġtrap
Ġstrongest
ĠMilitary
isible
Ġ1984
etheless
Ġflexible
Ġkills
Ġfinishing
ĠSize
Ġreduces
Ġepid
Ġorientation
full
Ġtrace
Ġlaser
Ġoppose
Ġediting
Ġmomentum
äº
show
VI
ĠLad
Ġ1985
Ġmurdered
900
uther
Ġprobability
ĠPoll
Ġreluct
ĠChem
ĠMontreal
Ġadequate
ĠPoland
ĠSheriff
umph
Ġok
Ġ000
Ġ"[
Ġoperators
ĠFer
Ġmodes
ĠEve
Ġdiscipline
NET
Hand
Ġoral
ĠWE
email
JP
ĠPalestinians
Ġhence
ĠLess
Ġoverl
dig
Ġintimid
ĠCoal
Ġranging
tha
Ġdistant
Ġfib
ĠIndex
ĠWonder
ĠPel
hattan
ĠHug
ÃĹ
rait
Ġwrapped
ĠRPG
Ġchemicals
ĠMoney
Ġfrozen
Ġindirect
ĠAgainst
End
Ġuncomfortable
ĠGallery
ĠPosted
Ø§
onduct
Ġconsequence
Ġbitter
Ġ1987
pop
Ġcountless
ĠAlaska
ffff
Ġdeparture
Ġrefund
ĠIan
iated
Ġseeks
Ġmechanics
Ġjurisdiction
lynn
Ġalike
ĠHunt
athon
Ġresolved
Ġcache
Ġdistinction
direct
Ġencount
oub
beat
ĠCountry
search
Ġcontinuous
Ġmodest
ĠRail
thood
130
BUG
Ġcriminals
Ġindication
Ġencountered
last
ĠWy
Ġideology
ĠPDF
security
])
ĠJimmy
ĠEN
Ġhiring
Tem
Ġpig
aunt
ĠCrystal
Ġpenalties
Ġcapability
Ġpy
Ġproductive
Ġbalanced
ĠGeForce
click
olitan
ods
Ġafterwards
Ġplayoffs
ĠGill
User
Ġbacks
pub
tag
Ġabsurd
piring
Ġciting
Ġtrillion
Ġobligation
Ġmaxim
ahoo
cf
umi
ĠAlpha
ĠNelson
Ġpursuant
initely
Ġfract
entry
bery
ĠThor
Added
ĠDJ
ĠGene
Ġawkward
Stud
Ġwallet
ĠDivine
arios
Ġreleasing
Ġedited
Ġaccomplished
Best
Ġedges
Ġplanes
Ġfeeding
"},"
Ġdisclosure
Ġgrain
airy
oons
ernand
VR
Ġreasonably
Ġdrum
Ġpartial
Ġgraphic
Ġunprecedented
Ġadvised
Micro
ĠAssad
points
scar
ĠZone
ttes
Ġ700
vo
ĠHamp
Ġfixes
Ġcaution
Ġstrings
Ġpanels
Ġleak
Ġpricing
rowth
ĠError
ĠSaints
fix
Ġobservations
ĠAbs
Ġsuggestion
ĠUkrainian
Ġbarrier
Ġpainted
Bet
imir
ĠSpect
pot
orneys
Ġcompound
Ġbears
ĠRush
Ġluxury
Sum
Ġorbit
ĠMarc
Ġexempt
ĠTrail
ĠMO
ĠHans
ĠWeapon
ocused
uminum
ĠJerry
Ġbust
ĠAG
ĠWiki
Ġendless
ĠVlad
ĠBah
ĠRadeon
keys
ĠSurvey
ĠViol
define
lean
Ġcommod
Ġrevenues
Åį
Ġfurniture
Ġcasting
Ġdiplomatic
ĠPlayers
ĠKilled
Ġmodify
Ġinnovative
ĠAbu
nor
Ġbonds
Ġcoaching
Mer
Ġmodules
ĠPatriots
Ġenhanced
Ġproceedings
Ġteammates
Ġ128
ardo
Ġcompromise
ĠMuch
Ġflew
ĠEdge
Ġunnecessary
Ġdoctrine
report
ĠOrlando
ĠProfile
Ġplayoff
friendly
Ġcomplain
ĠMC
ĠOpt
ĠGB
Ġbeaten
Ġgolf
Ġplacement
Bit
Ġnewsletter
Ġ2019
visor
rawl
ĠiPad
Ġacted
Ġjuice
Ġdecks
PN
success
ĠHalf
Ġdeleted
Ġsecrets
Ġasylum
Mart
ĠActiv
ĠGuy
ĠTs
Ġdys
Ġassuming
Ġmana
Ġsubur
Ġ125
Media
ARY
ride
cp
Ġdifficulties
Ġcollecting
Ġbankrupt
non
Ġcomposed
Ġvolt
Ġmilitants
Ġ>>>
ĠMormon
tor
Ġparticles
ĠBart
ryption
Ġadmin
Ġsquee
VIDIA
Ġcreator
iameter
icular
NBC
Ġgrabbed
Ġnodd
Ġrated
Ġrotation
Ġgrasp
Ġexcessive
ĠEC
ĠWhit
Ġinventory
aults
ĠFB
Ġecosystem
Ġbillions
Ġventure
named
Ġdefender
oute
Instead
irable
War
Ġassumption
Ġbite
Ġearthqu
tail
space
Ġgifts
boys
Ġinevitable
Ġstructural
Ġbeneficial
Ġcompelling
hole
ervation
Ġcoat
oj
incarn
ĠYears
Ġdetermining
Ġrhetoric
Ġboundaries
Ġwhites
Ant
addy
)-
raham
etermin
Ġharvest
ĠConc
Ġlaptop
ĠMatch
Ġenjoying
cca
ollar
Ġtrips
Ġaddiction
ĠSak
Ġpowered
Ġcous
ĠRussians
iere
Ġretrie
quality
Ġdiffer
Ġkingdom
ĠLaur
ĠCapitol
Ġconclusions
ĠAltern
ĠNav
Ġtransparent
BER
Group
ĠComplete
Ġinfer
Ġintrig
Ġinsane
RO
ophob
isen
qual
Michael
Ġmuseum
ĠPope
Ġreset
rative
five
Ġaggreg
ittees
ository
Ġcarb
ĠRecord
Ġdecides
ĠFix
Ġexceptions
ĠCommissioner
uns
ĠEnvironmental
Ġlegendary
istence
Ġtunnel
km
Ġinsult
Ġtroll
Ġshake
Ġdetention
ques
ĠChrome
ĠFiles
Ġsubt
Ġprospects
Ġprol
render
proof
Ġperformances
Str
Ġhref
ername
Ġachievement
Ġfut
Full
ĠLeban
google
ãĥĪ
ampa
Maybe
Ġprojected
ĠEmb
Ġcolleg
Ġawards
ĠâĶ
Gold
ĠBlake
ĠRaj
ifting
Ġpending
Ġinstinct
Ġdevelopments
Connect
ĠMand
ĠWITH
ĠPhilippines
profile
Ġaltogether
ĠBund
ĠTD
oooo
amped
iph
Ġsteam
Ġoldest
Ġdetection
ulpt
Ġç
ĠWayne
2006
fa
Ġcircles
ĠFu
Ġdonors
appropriate
ĠDakota
jamin
Ġmotivated
Ġpurchases
ĠLouisiana
ĠSpl
Ġglobe
Ġ105
zip
call
Ġdepartments
Ġsustainable
105
ĠOP
ifiers
Ġprevented
Ġincomp
ĠCommander
Ġdominated
ĠÂ»
Ġinvested
Ġcomplexity
Ġincl
Ġensuring
Ġrealm
ync
ĠIndependent
rained
ĠJen
ĠFlight
Ġathe
Ġspeculation
ĠTE
ocate
tic
Ġplaint
herry
Ġtoy
Ġ111
Ġplates
status
ĠIsa
Ġdevoted
Cop
ĠES
255
urrency
Main
Ġslaves
Ġpepper
Ġquotes
Ġceiling
ĠFish
Ġtransformation
Ġfraction
Ġadvantages
Ġtoile
Ġstunning
Ġmoist
breaking
si
ĠLocation
ĠMedium
Ġtexts
Ġugly
Ġbio
.âĢĶ
ĠBased
Ġtrains
ĠWing
ĠAncient
ĠRecords
ĠHope
Special
adesh
obi
[/
Ġtemporarily
Ver
hu
oser
Ġovernight
Ġmamm
ĠTreasury
ĠVenezuel
ĠMega
Ġtar
Ġexpects
black
orph
\\\\
Ġacceptance
Ġradar
sis
Ġjunior
Ġframes
Ġobservation
acies
Power
ĠAdvanced
Mag
ologically
ĠMechan
Ġsentences
Ġanalysts
aughters
forcement
Ġvague
Ġclause
Ġdirectors
Ġevaluate
Ġcabinet
Matt
ĠClassic
Ang
Ġcler
ĠBuck
Ġresearcher
Ġ160
Ġpoorly
Ġexperiencing
ĠPed
ĠManhattan
Ġfreed
Ġthemes
advant
Ġnin
Ġpraise
104
ĠLibya
best
Ġtrusted
Ġcease
Ġdign
Direct
Ġbombing
Ġmigration
ĠSciences
Ġmunicipal
ĠAverage
Ġglory
Ġrevealing
Ġarena
Ġuncertainty
Ġbattlefield
iao
God
Ġcinem
rape
elle
apons
Ġlisting
Ġwaited
Ġspotted
keley
ĠAudio
eor
arding
idding
igma
ĠNeg
Ġlone
Ġ----
exe
deg
Ġtransf
Ġwash
Ġslavery
Ġexploring
ĠWW
atson
Ġencl
lies
ĠCreek
Ġwooden
Manager
ĠBrand
ummy
ĠArthur
Ġbureaucr
Ġblend
arians
Further
Ġsupposedly
Ġwinds
Ġ1979
Ġgravity
Ġanalyses
ĠTravel
ĠVeter
Ġdumb
Ġalternate
gal
Ġconsumed
Ġeffectiveness
.''
Ġpaths
onda
LA
ĠStrong
Ġenables
Ġescaped
Ġ""
Ġ112
Ġ1983
Ġsmiled
Ġtendency
Fire
Ġpars
ĠRoc
Ġlake
Ġfitness
ĠAth
ĠHorn
Ġhier
Ġimpose
mother
Ġpension
icut
borne
iciary
._
ĠSU
Ġpolar
isy
engu
itialized
ATA
write
Ġexercises
ĠDiamond
otypes
Ġharmful
onz
Ġprinting
story
Ġexpertise
ĠGer
Ġtragedy
ĠFly
Ġdivid
ampire
stock
Mem
Ġreign
Ġunve
Ġamend
ĠProphet
Ġmutual
ĠFac
Ġreplacing
Har
ĠCircuit
Ġthroat
ĠShot
Ġbatteries
Ġtoll
Ġaddressing
ĠMedicaid
Ġpupp
ĠNar
olk
Ġequity
MR
ĠHispan
ĠLarge
mid
Dev
Ġexped
Ġdemo
ĠMarshall
ergus
Ġfiber
Ġdivorce
ĠCreate
Ġslower
ĠParker
ĠStudent
ĠTraining
Return
ĠTru
Ġcub
ĠReached
Ġpanic
Ġquarters
Ġrect
Ġtreating
Ġrats
ĠChristianity
oler
Ġsacred
Ġdeclare
ulative
eting
Ġdelivering
estone
Ġtel
ĠLarry
Ġmeta
accept
artz
ĠRoger
handed
Ġheader
Ġtrapped
ĠCentury
Ġknocked
ĠOxford
Ġsurvivors
bot
Ġdemonstration
Ġdirt
Ġassists
OME
ĠDraft
ortunate
folio
pered
usters
gt
ĠLock
Ġjudicial
verted
Ġsecured
outing
ĠBooks
Ġhosting
Ġlifted
length
Ġjer
Ġwheels
ĠRange
umbnails
Ġdiagnosis
tech
ĠStewart
ĠPract
Ġnationwide
Ġdear
Ġobligations
Ġgrows
Ġmandatory
Ġsuspicious
!'
Apr
Great
Ġmortgage
Ġprosecutor
Ġeditorial
ĠKr
Ġprocessed
ungle
Ġflexibility
Earlier
ĠCart
ĠSug
Ġfocuses
Ġstartup
Ġbreach
ĠTob
cycle
ãĢĮ
rose
Ġbizarre
ãĢį
Ġvegetables
$$
Ġretreat
oshi
ĠShop
ĠGround
ĠStop
ĠHawaii
ĠAy
Perhaps
ĠBeaut
uffer
enna
Ġproductivity
Fixed
control
Ġabsent
ĠCampaign
Green
Ġidentifying
Ġregret
Ġpromoted
ĠSeven
Ġeru
neath
aughed
ĠPin
ĠLiving
Cost
omatic
mega
ĠNig
ocy
Ġinbox
Ġempire
Ġhorizont
Ġbranches
Ġmetaph
Active
edi
ĠFilm
ĠSomething
Ġmods
incial
ĠOriginal
Gen
Ġspirits
Ġearning
Hist
Ġriders
Ġsacrific
MT
ĠVA
ĠSalt
Ġoccupation
ĠMi
Ġdisg
lict
Ġnit
Ġnodes
eem
ĠPier
Ġhatred
psy
ãĥī
Ġtheater
Ġsophisticated
Ġdefended
Ġbesides
Ġthoroughly
ĠMedicare
Ġblamed
arently
Ġcrying
FOR
priv
Ġsinging
ĠIl
Ġcute
oided
olitical
ĠNeuro
å¤
Ġdonation
ĠEagles
ĠGive
Tom
Ġsubstantially
ĠLicense
ĠJa
Ġgrey
ĠAnimal
ĠER
ĠUnd
Ġkeen
Ġconclude
ĠMississippi
Engine
ĠStudios
Press
overs
llers
Ġ350
ĠRangers
Ġrou
erto
Ep
issa
ivan
Ġseal
ĠRegist
display
Ġweaken
uum
ĠCommons
ĠSay
Ġcultures
Ġlaughed
Ġslip
Ġtreatments
izable
mart
ĠRice
Ġbeast
Ġobesity
ĠLaure
iga
Which
holder
Ġelderly
Ġpays
Ġcomplained
Ġcrop
Ġproc
Ġexplosive
ĠFan
ĠArsenal
Author
eful
Ġmeals
Ġ(-
idays
Ġimagination
Ġannually
Ġms
asures
Head
ikh
matic
Ġboyfriend
ĠComputer
Ġbump
Ġsurge
ĠCraig
ĠKirk
Del
mediate
Ġscenarios
ĠMut
ĠStream
Ġcompetitors
ÙĦ
ĠStanford
ĠResources
azed
bage
Ġorganis
ĠRelease
Ġseparately
Ġhabits
Ġmeasurements
ĠClose
Ġaccompany
Ġgly
Ġtang
ĠRou
Ġplugin
Ġconvey
ĠChallenge
oots
jan
Ġcurs
ĠRelations
keeper
Ġapproaching
ping
Speaking
Ġarrangement
ĠVI
arettes
Ġaffecting
Ġpermits
because
Ġuseless
ĠHus
!!!!
Ġdestroying
Unfortunately
Ġfascinating
Sem
Ġelectoral
Ġtransparency
ĠChaos
Ġvolunteer
Ġstatistical
Ġactivated
rox
Web
HE
ĠHampshire
isive
Map
Ġtrash
ĠLawrence
stick
Cr
Ġrings
EXT
Ġoperational
opes
Does
ĠEvans
Ġwitnessed
Port
Ġlaunching
econom
wear
ĠParticip
umm
cules
ĠRAM
ĠTun
Ġassured
Ġbinary
Ġbetray
Ġexploration
ĠFel
Ġadmission
itated
Sy
Ġavoided
ĠSimulator
Ġcelebrated
ĠElectric
¥ŀ
Ġcluster
itzerland
health
Line
ĠNash
aton
Ġspare
Ġenterprise
ĠDIS
cludes
Ġflights
Ġregards
ĠÃĹ
half
Ġtrucks
Ġcontacts
Ġuncons
ĠClimate
Ġimmense
NEW
occ
ective
Ġembod
Ġpatrol
Ġbeside
Ġviable
Ġcreep
Ġtriggered
verning
Ġcomparable
ql
Ġgaining
asses
Ġ();
ĠGrey
ĠMLS
sized
Ġprosper
"?
Ġpolling
Ġshar
ĠRC
Ġfirearm
orient
Ġfence
Ġvariations
giving
ĠPi
ospel
Ġpledge
Ġcure
Ġspy
Ġviolated
Ġrushed
Ġstroke
ĠBlog
sels
ĠEc
,''
Ġpale
ĠCollins
terror
ĠCanadians
Ġtune
Ġlaboratory
Ġnons
tarian
Ġdisability
ĠGam
Ġsinger
alg
ĠSenior
Ġtraded
ĠWarrior
Ġinfring
ĠFranklin
Ġstrain
ĠSwedish
Ġseventh
ĠBenn
ĠTell
Ġsyndrome
Ġwondered
iden
++++
igo
Ġpurple
Ġjournalism
Ġrebel
Ġfu
blog
Ġinvite
rencies
ĠContact
Israel
ĠContent
Ġcheer
Ġbedroom
ĠEngineering
ĠQueens
Ġdwell
ĠPlayStation
ĠDim
ĠColon
lr
Ġoperates
Ġmotivation
USA
astered
Core
ĠTruth
olo
OSE
ĠMemory
Ġpredec
Ġanarch
Ġ1920
ĠYam
Ã¨
bid
Ġgrateful
Ġexcitement
Ġtreasure
Ġlongest
ctive
Ġdeserves
Ġreserves
Ġcops
ĠOttawa
ĠEgyptian
anked
Ġartif
Ġhypothesis
:/
Ġpurchasing
Ġlovely
HP
Ġdivide
Ġstrictly
Ġquestioning
Ġtaxpayers
ĠJoy
Ġrolls
ĠHeavy
Ġports
Ġmagnetic
Ġinflamm
Ġbrush
tics
âĪĴ
Ġbottles
ppy
Ġpadd
ãĤ¯
million
Ġdevastating
Ġcompiled
Ġmedication
Ġtwelve
ĠPerry
Space
imb
your
Ġleaked
ĠTar
Ġunity
Ġinfected
Ġtraveled
IDE
ĠMcDonald
txt
ĠPrinc
Ġinterven
ĠTaiwan
ĠPow
Ġbearing
ĠThread
Ġzones
izards
unks
Chapter
llor
ĠÂ·
Ġwounds
Ġdiscretion
Ġsucceeded
iking
Ġiconic
Call
Ġscreening
ĠMis
icts
Ġministers
Ġseparation
Player
Ġbip
Ġbeloved
Ġcounting
ĠEye
around
inging
Ġtablet
Ġoffence
inance
have
ĠInfo
ĠNinja
Ġprotective
ĠCass
Mac
ĠQuality
North
Ġic
ĠCuba
ĠChronicle
ĠProperty
Ġfastest
otos
ĠGerm
OWN
Ġboom
ĠStanley
erguson
Ġclever
Ġenters
mode
terior
ĠSens
Ġlinear
ARK
Ġcomparing
Ġpurely
Ġsafer
ĠPotter
Ġcups
RT
Ġgluc
Ġattributed
Ġdupl
ĠPap
Ġprecious
Ġpa
ictionary
ĠTig
ĠToo
olutions
stan
Ġrobots
Ġlobb
Ġstatute
Ġprevention
western
160
ĠActive
ĠMaria
hal
None
ellar
ĠKB
ĠPartners
ĠSingle
ĠFollowing
ango
acious
Ġthou
Ġkg
Ġinfluential
ĠFriends
Sur
ainted
Ġforums
Ġstarter
Ġcitizenship
ĠElection
onge
otation
osph
;;;;
utical
pur
eren
Ġaccusations
bitious
abbit
ĠOrd
Posted
irk
Ġsensitivity
iche
ĠAmy
ĠFab
Ġsummit
Ġpedest
Ġrubber
Ġagricultural
Ġcancel
AE
Ġinaug
Ġcontam
Ġfirmly
iw
stage
ĠKan
Ġtier
Ġinvention
Ġtranslated
ĠRules
Box
Twitter
IDS
Ġpizza
Ġdebug
ĠDrop
vs
Ġhorses
big
Ġboring
Ġhood
ĠMcCain
atched
ĠBros
Ġskip
Ġessay
stat
ĠLegends
Ġammunition
auc
Ġshooter
Ġunh
Ġsupplied
Ġgeneric
ĠSK
iban
yrics
Ġ255
Ġclimbing
Former
Ġflip
Ġjumping
Ġfrustration
ĠTerry
Ġneighborhoods
Ġmedian
bean
Ġbrains
Following
Ġshaped
Ġdraws
Ġaltered
Jack
Ġrecipes
Ġskilled
wealth
achi
election
Ġbehaviors
deals
ĠUntil
Fe
Ġdeclaration
marks
ĠBetween
celona
Ġreson
Ġbubble
Among
Ġimperial
GS
Ġfeminist
2005
ĠKyle
Ġaccounting
ĠTele
ĠTyr
Ġconnecting
Ġrehab
ĠPred
sim
Ġmeantime
Ġphysician
MW
ĠCampbell
ĠBrandon
Ġcontributing
ĠRule
ĠWeight
ĠNap
Ġinteractive
Ġvag
Ġhelmet
ĠComb
four
Ġshipped
Ġcompleting
ĠPD
PDATE
Ġspreading
Ġscary
erving
ĠGas
Ġfrank
school
Ġromantic
Ġstabil
Rob
Ġaccurately
Ġacute
ĠHann
Ġsymbols
Ġcivilization
ĠAW
Ġlightning
Ġconsiders
Ġvenue
Ġ×
Ġoven
ĠSF
his
Ġnu
ĠLearn
Ġpeoples
Ġstd
Ġslee
Ġslic
ĠStatistics
Ġcorners
ĠBaker
Ġ:)
mentation
olver
Ġlaughing
ĠTodd
onde
ĠHills
Ġnuts
ĠWoman
plane
Ġliver
ĠInside
Sorry
Ġagrees
Ġfundament
ĠFisher
Ġauction
Ġthreads
glas
ĠBasic
ĠNat
Ġlacking
Ġcelebration
ju
Ġsilly
Euro
Ġtatt
ighty
controlled
Test
ĠSingh
Ġrage
Ġrhyth
offic
ĠPhantom
Ġheadlines
Ġresponding
ĠMorning
Ġvitamin
Ġboots
ĠSite
alin
pi
Ġviral
ĠUC
DER
ĠSex
Ġstocks
current
Ġchurches
ĠRare
ĠMurphy
Ġdenial
ĠGaming
Ġtoug
Ġnick
Ġmakers
ĠRonald
Ġgenerous
ĠDoc
ĠMorris
Ġtransformed
ĠNormal
Ġ104
ĠKickstarter
ĠUpon
Online
ĠIRS
Ġwrap
Ġloving
Ġarrives
ĠDue
Ġheter
ĠMade
Ġrental
Ġbelongs
Ġattorneys
Ġcrops
Ġmatched
ulum
oline
109
Ġdispar
Ġbuyers
ĠCambridge
Ġethics
roups
Ġjustified
Ġmarginal
Ġrespected
winning
Ġnodded
ĠSerge
ĠFormer
Craft
################
ĠWarner
Ġdash
ete
Ġentert
ĠEscape
outheast
Ġknees
ĠBomb
Ġrug
Pass
Ġattitudes
government
ĠPrior
Ġqualities
Ġnotification
ĠPhone
lie
Ġanticipated
ĠCombat
ĠBarry
Ġ1982
Users
oner
Ġcomputing
ĠConnecticut
Ġlesser
Ġpeers
ĠCu
Ġtechnically
Ġsubmission
ĠUniversal
Ġmanually
ourge
Ġrespondents
ĠBTC
ĠHost
Ġfare
ĠBird
Ġreceipt
also
Ġjack
Ġagriculture
Ġskull
Ġ!=
Ġpassive
ĠCI
Ġsocieties
Ġreminded
Ġinterference
Buy
Ġâľ
gon
Ġscrutiny
ĠWitch
Ġconducting
Ġãĥ
Ġexchanges
ĠMitchell
Ġinhabit
Ġtwist
BD
Ġwherever
groupon
Ġjokes
ĠBenjamin
ĠRandom
frame
ĠLions
Ġhighlighted
ĠArkansas
Ent
Ġpile
Ġprelim
gs
minded
Ġfelony
ĠGA
ĠLuck
Ġpractically
ĠBos
Ġactress
Dam
ĠBou
Ġvisa
Ġembedded
Ġhybrid
Ġearliest
Ġsooner
social
ĠHA
Ġsteep
Ġdisadvant
Ġexploit
ĠEgg
ĠUltra
Ġnecessity
Local
iege
Ġdated
Ġmasses
Ġsubscription
pless
Ġanonym
Ġpresumably
Blue
Their
asketball
ĠPhilip
Ġcomed
loaded
rane
Ġreflection
China
Ġextends
Ġforming
Ġunders
2001
Ġgrat
Ġconcentrations
Ġinsulin
Ġsecular
Ġwhilst
Ġwinners
Advertisements
Ġdeliberately
ĠWorking
Ġsink
etics
dale
Ġmandate
Ġgram
Ġvacation
Ġwarnings
ripp
ĠTHAT
Ġcommentary
Ġintu
Ġaest
Ġreasoning
Ġbreakdown
ĠZombie
Ġ-->
ĠPolitical
cott
Ġthrust
Ġtechnological
Ġdeciding
Ġtrafficking
Long
Welcome
prising
ĠCommunications
Ġendors
Ġswift
Ġmetabol
coins
resa
ĠHTTP
Ġenroll
ĠHappy
usr
intage
Ġ["
uably
ĠMaterial
Ġrepeal
Sept
kh
ĠModi
Ġunderneath
ĠIL
shore
Ġdiagnosed
aceutical
Ġshower
aux
ĠSwitch
ĠStrength
Ġjihad
national
Ġtrauma
ussy
oni
Ġconsolid
Ġcalories
ĠFlynn
agged
168
ĠPink
Ġfulfill
Ġchains
Ġnotably
ĠAV
Life
ĠChuck
mus
ĠUrban
ĠHend
Ġdeposit
ĠSad
Ġaffair
ORK
ieval
ĠFDA
Ġtrop
ĠOverall
Ġvirtue
Ġsatisfaction
aund
Ġlun
ĠSwitzerland
ĠOperation
process
Ġshook
Ġcounties
leased
ĠCharlotte
112
Ġtranscript
Ġredd
push
ĠHey
ĠAnalysis
["
Ġalternatives
ardless
Ġeleph
Ġprejud
ĠLeaf
Having
ĠHub
Ġexpressions
ĠVolume
Ġshocking
ĠReds
Ġreadily
Ġplanets
adata
Ġcollapsed
ĠMadrid
Ġirrit
ipper
ĠEnc
ĠWire
Ġbuzz
ĠGP
asha
Ġaccidentally
uru
Ġfrustrated
ĠSA
Ġhungry
ĠHuff
Ġlabels
anto
ĠEP
Ġbarriers
)|
ĠBerkeley
ĠJets
Ġpairs
ĠLan
James
ĠBear
Ġhumor
ĠLiberty
Ġmagnitude
Ġaging
ĠMason
Ġfriendship
umbling
Ġemerge
Ġnewspapers
Ġambitious
ĠRichards
aternal
Ġ1981
Ġcookies
Ġsculpt
Ġpursuit
Location
Ġscripts
pc
Ġarrangements
Ġdiameter
Ġloses
amation
Ġliqu
ĠJake
arette
Ġunderstands
ĠZen
vm
Ġapprove
Ġwip
Ġultra
Ġintend
ĠDI
ascular
Ġstays
ĠKor
ĠKl
Ġinvesting
La
Ġbelieving
bad
mouth
Ġtaxpayer
ãĥĥ
ĠQuebec
Ġlap
ĠSwiss
drop
Ġdrain
iri
etc
ften
ĠNex
Ġstraw
Ġscreaming
Ġcounted
Ġdamaging
Ġambassador
century
Ġprox
Ġarrests
uv
ilateral
ĠCharg
Ġprescribed
Ġindependently
Ġfierce
ĠBaby
Ġbrave
Ġsuits
=>
Ġbaseline
ĠRate
Ġislands
Ġ((
green
ixels
Ġnamely
ĠVillage
than
amy
Version
gmail
entials
ĠSud
ĠMelbourne
Ġarriving
Ġquantum
eff
ropolitan
Tri
Ġfuneral
ĠIR
ÃĥÃĤÃĥÃĤÃĥÃĤÃĥÃĤÃĥÃĤÃĥÃĤÃĥÃĤÃĥÃĤ
ĠCob
itably
Ġturb
Ġcombo
Review
Ġdeployment
uity
ĠBott
Ġinvisible
Ġrendering
Ġunlocked
Ġaqu
ĠVladimir
Ġpad
ĠBrain
ĠLegacy
dragon
ĠKurdish
Ġsounded
Ġdetained
ĠDM
gary
Ġdaughters
Ġdisturbing
uka
ĠParad
Ġtast
Ġunfortunate
Ġul
emin
Ġattendance
trl
Ġparks
ĠMemorial
ĠAlice
othy
guard
ĠDise
ĠShan
ĠForum
Rich
Ġshifted
uez
Ġlighter
ĠMagn
Ġcod
Sch
hammad
Pub
350
ĠPokemon
Ġprototype
Ġunre
Base
ĠStudents
ĠReply
ĠCommunist
Ġgau
ĠTyler
IZ
Ġparticipated
Ġsuprem
ĠDetails
Ġvessels
rod
Ġtribe
keep
Ġassumptions
Ġpound
Ġcrude
ĠAvailable
Ġswimming
Ġinclusion
Ġadvances
culation
Ġconservation
Ġoverd
ĠBuffalo
Article
edge
Ġawa
ĠMadison
Ġsidew
Ġcatast
ĠKrist
ucle
ĠHighway
ĠTerror
Ġactivation
Ġunconscious
ĠSatan
ĠSusan
illery
Ġarranged
iop
Ġrumors
urring
think
ĠKeith
ĠKind
Ġavoiding
byn
nut
ĠSpeaker
rus
names
Ġguilt
ĠOlympics
Ġsail
ĠMes
levant
ĠColumbus
aft
City
South
ĠHarvey
ĠPun
Several
Ġmentally
Ġimpress
mount
ĠUbuntu
âĢĶâĢĶâĢĶâĢĶâĢĶâĢĶâĢĶâĢĶ
ĠSuperman
ĠMPs
Ġintentions
ĠRacing
Ġlikelihood
Ġ240
Total
Ġtoys
ĠWatson
Ġurge
Lear
ĠPaper
Ġoccurring
ĠBeng
ĠCert
Ġstones
Tim
ĠTwin
zb
ĠDynam
Ġpolitician
kens
ĠEnterprise
UTERS
Ġabol
Ġrefresh
Ġarbitrary
pection
Ġtroubles
Ġ});
tv
Ġpilots
Ġdistribute
Ġaudit
Ġpause
original
Ġrivals
Â£
Fig
TL
abil
rying
Lin
ioned
lon
Ġfancy
Ġcrashed
Ġtract
Ġshed
Ġconsume
Based
download
init
Ġvoltage
Introdu
Ġcondemned
ĠFinance
respect
Ġexcluded
Ġestablishing
heric
Ġheritage
Ġspectacular
Ġunst
ĠSnowden
ĠLane
San
Ġprotections
struction
incinn
Ġmacro
Custom
iosity
Ġesp
Ġfunctioning
Ġmush
Ġpuzzle
Ġethical
Mal
Ġgoverning
ĠFerguson
Ġrestored
Ġstressed
ĠCounter
ĠKas
clip
ANS
Ġseiz
UK
byss
oldown
api
Ġpermanently
ounters
West
Through
Light
atoes
Ġneat
Ġcord
urer
Ġseverely
ĠAven
Ġinterrog
Ġtriple
Given
Number
Ġarise
Ġsher
plant
Ġflower
ĠCou
Ġate
Ġnewer
bul
Ġmeanwhile
ĠLair
Ġadjustment
ĠCopyright
Ġdivers
iological
Ġgamers
oat
Ġhistorically
Ġanalog
Ġlongtime
Ġprescription
ĠMist
ĠHyper
ĠMaine
ĠDeity
Ġmultipl
ĠReincarn
ĠHyd
ĠPic
Sil
rants
ĠCris
.;
({
ependence
Ġrecy
ateur
Ġquad
Ġglob
Ġconced
team
Ġcapitalist
ĠLot
Ġroyal
ĠCyber
Ġblacks
metic
riv
ĠDanny
Ġspo
ĠRO
Ġanimated
rypted
ĠDeputy
Ġrendered
FE
Ġstreak
Ġclouds
ĠDoug
~~~~~~~~
Ġdiscour
ĠVeh
Ġpsychology
ĠJourney
Ġcrystal
ĠFrost
Ġsuspicion
Ġrelate
orus
ĠCrypt
ĠNVIDIA
comed
uting
incinnati
Ġvulnerability
ostic
Ġisolation
Ġcooling
ĠCoalition
Ġ119
Four
ĠDeal
Ġâī
semble
rament
ĠBarcelona
Ġ102
Ġcocaine
ocalypse
Feb
ogenic
Ġmutation
Ġcryptoc
ĠKel
ĠGit
ais
Ġsisters
ANK
Ġactivate
Ter
Ġdread
ylon
Ġpropri
Aust
ĠDefault
Ġoutdoor
Ġsheer
ceive
Ġgently
Ð¾
Program
ĠâĨĴ
Ġvegan
ĠCrus
Ġresponsibilities
ĠHR
OLD
Ġprevents
Ġstiff
ĠWere
Ġathletic
ĠScore
Ġ):
Ġcolumns
ĠLoc
available
ĠFram
ĠSessions
Ġcompanion
Ġpacks
140
ĠKnights
Ġfart
Ġstreams
Ġshore
Ġappeals
ĠPerformance
haul
ĠStra
ĠNag
103
ĠTransportation
BB
Ev
zan
Public
Ġtwin
ulsion
Mult
Ġelectro
Ġstatue
ationally
ĠNort
Ġinspection
/*
igue
Ġcompassion
ĠTales
ĠStein
ĠScreen
ĠBug
ĠLion
girl
Ġwithdrawal
Ġobjectives
Ġbloody
Ġpreliminary
Ġjacket
Ġdimensions
ĠCool
ĠOccup
Ġwreck
Ġdoubled
anking
Ġ1975
Ġglasses
ĠWang
prov
Path
connected
ĠMulti
ĠNorway
agonist
Ġfeared
Ġtouching
Ġarguably
Â¯Â¯Â¯Â¯Â¯Â¯Â¯Â¯
ĠNCAA
chem
Ġspat
ĠWWE
ĠCel
igger
Ġattacker
ĠJoin
object
etta
Ġeliminated
det
Ġdestruct
ĠLucas
ctuary
180
ĠBrady
ĠBlues
Bay
aukee
Ġtimeline
Ġdelegates
written
ufficient
Ġshapes
Copyright
ouble
service
Ġpione
Ġcolleges
Ġrows
Ġspite
Ġassessed
360
Ġlease
Ġconfidential
cker
ĠManning
ĠVoice
Ġsealed
Ġcalculate
NO
ĠAssistant
Ġteenager
ulent
atherine
Ġmock
Ġdiamond
Ġfest
Ġswitched
Ġresume
ĠPuerto
Ġlanes
iration
ĠSimilarly
Ġrod
ĠSel
ĠPalace
ĠLimited
eous
Ġvariant
Ġward
Ġ))
Show
OOK
Alex
ĠNep
bris
ĠWikipedia
Ġexceptional
Ġmanages
ĠDraw
Again
Ġcopper
utt
Ġexports
Ġportfolio
Ġelevated
Rated
ĠOtherwise
ĠTact
ĠShel
ĠTX
"âĢĶ
Ġresur
ĠWa
venant
Ġmonetary
people
Email
Ġfifty
ĠSweet
ĠMalaysia
Ġconfusing
ĠRio
uda
utenant
");
Ġpraised
Ġvolumes
turn
Ġmature
Ġnonprofit
Ġpassionate
ĠPrivate
Ġ103
Ġdescend
ç¥ŀ
uffy
headed
Whether
rien
zech
beit
Ġchrom
ĠMcM
Ġdancing
Ġeleg
ĠNoticed
115
Ġadvocacy
ENTS
ambling
ĠMinor
ĠFinn
Ġpriorities
Ġthereof
ĠStage
ĠRogers
Ġsubstitute
ĠJar
ĠJefferson
Ġlightly
102
ĠLisa
uits
ysical
Ġshifts
Ġdrones
Ġworkplace
Ġresid
ensed
ahn
Ġpreferences
server
Ġdebates
doc
ĠGods
Ġhelicopter
Ġhonour
Ġconsiderably
eded
ĠFemale
ĠAnne
Ġreun
ĠFace
ĠHallow
ĠBudget
Ġcondemn
Ġtender
Prof
ocratic
ĠTurner
ĠAgric
Ġ1976
Ġapt
disc
ĠFighter
ĠAur
Ġgarbage
input
ĠKarl
ĠOliver
ĠLanguage
kn
Non
ĠClar
Ġtraditions
Ġadvertisement
ĠSor
Ġarchive
Ġvillages
750
Ġimplementing
waukee
Ġdietary
Ġswitching
Republic
Ġvelocity
Ġcit
ĠAwards
Ġfinancing
Ġlasted
)]
Ġreminder
Person
Ġprecision
Ġdesigners
ĠFried
ĠBorder
Ġtragic
Ġwield
Ġinitiatives
ĠTank
wer
Ġjoins
Ro
inery
Ġarrow
Ġgenerating
founder
Ġsearches
Ġrandomly
Access
Ġbatch
Ġposed
lat
Ġpursuing
asa
Ġtestified
forming
ĠShar
wiki
ĠEither
Sometimes
Ġsenators
ĠJohnny
ĠTaliban
ĠGPS
":"/
ãģ®å
Ġanalyzed
ĠRubio
ĠMovement
opard
iii
Stand
fight
Ġignoring
iang
ĠGN
soever
ĠSTAT
Ġrefusing
Ġsweat
Ġbay
PORT
irmed
aky
Ġdispro
Ġlabeled
Ġ108
Hello
Ġpleasant
aba
Ġtriumph
Ġaboard
Ġincom
ĠCrow
lett
Ġfolk
Ġchase
``
ĠBrus
Ġteens
cue
Ġterrain
hyd
ilight
ORY
Support
ews
lli
raints
ĠCand
Ġabused
achment
larg
Bas
ĠCancer
Ġ1978
Ġsupporter
access
ĠTermin
ĠTampa
ĠANY
Ġnewest
ĠCriminal
edu
Ġ1930
Ġadmits
Ġende
Ġfailures
urate
fulness
cycl
ĠSubject
Ġinfinite
three
WA
pit
ĠInstall
Rad
iliation
GM
Ġcontinent
Ġaccommodate
ĠClay
Ġpup
ĠFunction
Ġhammer
ĠAlberta
Ġrevised
Ġminorities
Ġmeasurement
Connell
Ġdisable
ĠMix
Incre
Ġfork
ĠRosen
Ġimplies
umblr
ANG
Ġproteins
Ġaggression
Ġfacilitate
SN
Ġillegally
uer
Ġacadem
Ġpuzz
ĠShift
pay
ollo
Ġaudiences
Build
Ġnoble
Ġsyntax
âĺħ
Ġbeam
ĠBed
ĠAld
Ġorigins
video
Ġ1977
ĠAssault
Ġgarage
Team
Ġverdict
Ġdwar
ĠVirtual
event
Keep
Ġsentiment
Ġwildlife
shirt
Ġburg
Ġrecommendation
represent
Ġgallery
owners
Ġscholar
Ġconvenience
ĠSwift
Ġconvinc
Cap
Ġwarfare
ĠVisual
Ġconstitute
Ġabort
ĠWeather
ĠLooking
ĠHem
Ġmartial
Ġincoming
etition
Ġtolerance
ĠCreated
Ġflows
ĠElder
Ġsouls
Ġfoul
ĠPain
ĠCAN
Ġ220
bc
hend
Ġgenius
Real
ĠWr
ometer
pad
Ġlimiting
ĠSi
ĠLore
ĠAdventures
Ġvaried
Disc
fin
ĠPersonal
Chris
Ġinvented
Ġdive
ĠRise
Ġoz
ĠComics
Ġexpose
ĠReb
letters
site
imated
Ġhacking
Ġeducated
ĠNobody
Ġdepri
Ġincentive
ãĤ·
Ġoversight
Ġtribes
ĠBelgium
Ġlicensing
ourt
Product
ahl
ĠGem
Ġspecialist
Ġcra
anners
ĠCorbyn
Ġ1973
READ
Ġsummar
Ġoverlook
ĠApplication
Ġinappropriate
Ġdownloaded
Que
ĠBears
Ġthumb
ĠCharacter
ĠReincarnated
ĠSid
Ġdemonstrates
sky
ĠBloomberg
ĠArray
ĠResults
ĠFourth
ĠEDT
ĠOscar
cend
Ġ106
ĠNULL
ĠHERE
match
ĠBrun
Ġglucose
ieg
egu
Ġcertified
Ġrelie
Ġhumanitarian
Ġprayers
King
Ġnan
hou
108
ulu
Ġrenewable
Ġdistinguish
Ġdense
ĠVent
ĠPackage
ĠBoss
Ġeditors
Ġmigr
Tra
ĠPeters
ĠArctic
2004
ĠCape
Ġlocally
Ġlasting
Ġhandy
.).
Pan
ĠRES
Index
Ġtensions
Ġformerly
Ġideological
Ġsensors
Ġdealers
Ġdefines
Sk
Ġproceeds
Ġproxy
azines
ĠBash
ĠPad
ĠCraft
ealous
Ġsheets
ometry
June
clock
TT
ĠTheatre
ĠBuzz
Ġchapters
Ġmillenn
Ġdough
ĠCongressional
Ġimagined
avior
Ġclinic
Ġ1945
Ġholder
root
olester
Ġrestart
BN
ĠHamas
ĠJob
Ġorb
Ġram
Ġdisclose
Ġtranslate
Ġimmigrant
Ġannoying
Ġtreaty
anium
ĠTea
ĠLegion
Ġcrowds
ĠBec
ĠAer
ohyd
Bro
Looking
Ġlbs
Ġaggress
Ġseam
Ġintercept
ĠMI
mercial
activ
ĠCit
Ġdimension
Ġconsistency
Ġrushing
ĠDouglas
Ġtrim
Install
icker
Ġshy
106
Ġmentions
pelled
ĠTak
cost
Ġclassroom
Ġfortune
driven
Ġunle
ĠWheel
Ġinvestor
ĠMasters
kit
Ġassociations
ĠEvolution
oping
uscript
Ġprovincial
ĠWalter
avi
SO
Ġunlimited
English
ĠCards
ĠEbola
nered
Ġrevenge
Ġoutright
umper
Ġfitting
ĠSolid
Ġformally
Ġproblematic
Ġhazard
Ġencryption
Ġstraightforward
ĠAK
Ġpse
ĠOrb
ĠChamber
ĠMak
Contents
Ġloyalty
Ġlyrics
ĠSym
Ġwelcomed
Ġcooked
Ġmonop
Ġnurse
Ġmisleading
Ġeternal
Ġshifting
Ġ+=
Vis
Ġinstitutional
illary
Ġpant
VERT
ĠACC
ĠEnh
Ġincon
ĠREUTERS
Ġdonated
âĢ¦âĢ¦âĢ¦âĢ¦
Intern
Ġexhibit
Ġtire
ĠRic
ĠChampion
ĠMuhammad
NING
ĠSoccer
Ġmobility
Ġvarying
ĠMovie
Ġlord
oak
Field
Ġvector
usions
Ġscrap
Ġenabling
make
Tor
.*
||
ĠWebsite
ĠNPC
Ġsocialist
ĠBilly
ĠAdditional
Ġcargo
Ġfarms
ĠSoon
ĠPrize
Ġmidnight
Ġ900
seen
ĠSpot
Ġsheep
Ġsponsored
ĠHi
ĠJump
Ġ1967
Microsoft
ĠAgent
Ġcharts
dir
Ġadjacent
Ġtricks
Ġmanga
Ġexagger
/>
football
ĠFCC
GC
ĠTier
andra
OUND
%),
Ġfruits
VC
ĠAA
Rober
Ġmidst
âĹ
anka
Ġlegislature
ĠNeil
Ġtourists
""
ĠWarning
ĠNevertheless
ĠOfficial
ĠWhatever
Ġmold
Ġdrafted
Ġsubstances
Ġbreed
Ġtags
ĠTask
Ġverb
Ġmanufactured
comments
ĠPolish
Prov
Ġdetermines
Obama
kers
Ġutterly
Ġsect
sche
ĠGates
ĠChap
Ġaluminum
Ġzombie
ĠTouch
ĠUP
Ġsatisfy
Ġpredomin
ascript
Ġelaborate
Ġ1968
Ġmeasuring
ĠVari
anyahu
Ġsir
ulates
idges
ickets
ĠSpencer
TM
oubted
Ġprey
Ġinstalling
ĠCab
reed
reated
Supp
Ġwrist
ĠKerry
107
ĠKle
ĠRachel
Ġcotton
ĠARE
ĠEle
Control
Ġloads
ĠDod
anas
bone
Ġclassical
ĠRegional
ĠInteg
VM
Ġdesires
Ġautism
supported
ĠMessage
Ġcompact
writer
Ġ109
ĠHurricane
cision
Ġcycles
Ġdrill
Ġcolleague
Ġmaker
German
Ġmistaken
Sun
ĠGay
Ġwhatsoever
Ġsells
ĠAirl
liv
ĠOption
Ġsolved
Ġsectors
Ġhorizontal
Ġequation
ĠSkill
ĠBio
gement
ĠSnap
ĠLegal
Ġtrademark
Ġmakeup
Ġassembled
Ġsaves
ĠHalloween
ĠVermont
ĠFROM
Ġfarming
ĠPodcast
acceptable
ĠHigher
Ġasleep
ullivan
Ġreferen
ĠLev
Ġbullets
oko
HC
Ġstairs
Ġmaintains
ĠLower
ĠVi
Ġmarine
Ġacres
Ġcoordinator
ĠJoh
Ġcounterparts
ĠBrothers
Ġindict
bra
Ġchunk
Ġcents
Home
ĠMonth
Ġaccordingly
ifles
ĠGermans
ĠSyn
Hub
Ġeyeb
âĶĢâĶĢâĶĢâĶĢ
Ġranges
ĠHolland
ĠRobot
fc
Mike
Ġplasma
Ġswap
Ġathlete
ĠRams
,'"
Ġinfections
Ġcorrid
Ġvib
Ġpatches
Ġtraditionally
Ġrevelation
Ġsweep
Ġglance
Ġinex
2003
ĠRaw
working
osures
ĠDat
ĠLynch
Ġleverage
ĠReid
Ġcorrelation
iances
avascript
Ġrepository
retty
Ġ1972
240
Ġoun
pol
ĠReed
Ġtactical
isite
Apple
ĠQuinn
Ġraped
illo
Europe
Ġalgorithms
ĠRodrig
iu
Ġillum
Ġfame
Ġintroducing
Ġdelays
ĠRaiders
Ġwhistle
Ġnovels
ĠReally
Ġderiv
Ġpublications
ĠNeither
ĠCommerce
Ġaston
language
Notes
ĠRoth
ĠFear
Ġmate
Ġparade
ĠQB
Ġmaneu
ĠCincinnati
mitting
Ġwaist
ĠRew
Ġdiscont
Ð°
Ġstaring
Ġalias
Ġsecurities
Ġtoilet
ĠJedi
Ġunlaw
vised
////////
](
ĠWeiss
Ġprest
ĠCompan
Ġmemo
ĠGrace
July
ĠElite
center
ĠStay
Ġgalaxy
Ġtooth
ĠSettings
Ġsubjected
ãĤ¦
Ġlineback
Ġretailers
ĠWant
Ġdangers
Air
Ġvoluntary
eway
Ġinterpreted
otine
Ã§
Ġpel
Service
ĠEventually
Ġcareers
Ġthreaten
Ġmemor
ĠBradley
ancies
sn
ĠUnknown
National
Ġshadows
ailand
ĠDash
Everyone
izzard
March
=(
Ġpulls
Ġstranger
Ġbackwards
ĠBernard
imensional
Ġchron
Ġtheoretical
ktop
Ġware
ĠInvestig
ĠIniti
ĠOperations
oven
ocide
*/
Ġflames
ĠCash
shit
Ġcab
ĠAnaly
ĠSeah
Ġdefining
Ġordering
Ġimmun
Ġpersistent
ACH
Russian
mans
Ġhind
Ġphotography
Â©
Ġhug
Ġ107
ĠHence
iots
udeau
Ġsubsidies
Ġroutinely
ĠDevice
itic
Ġdisgust
lander
Ġ1940
Ġassignment
ĠBesides
wick
ĠDust
usc
structed
111
develop
Ġfond
Ġintersection
Ġdignity
Ġcommissioner
Without
reach
Ġcartoon
Ġscales
ãĥŃ
FIG
Ġsurveys
ĠIndonesia
Ġartwork
Ġunch
Ġcycling
unct
auer
orate
ĠObviously
Ġcharacterized
feld
Ġaffirm
Ġinnings
Ġé
Ġaliens
Ġcloth
etooth
ĠCertain
Â§
Ġdigest
know
ĠXL
Ġpredictions
Ġdin
WAR
Ġaftermath
Example
ĠSuccess
ĠThr
IGN
Ġminer
Bus
Ġclarity
heimer
ĠOUT
ĠSend
ĠCircle
ĠDiet
Ġpronounced
Ġcreators
Ġearthquake
attery
geons
Ġod
Ġlaying
orp
Ult
project
Ġundermin
Ġsequel
Sam
ĠDarkness
Ġreception
bull
YS
ĠVir
Ġsequences
ĠCoin
Ġoutfit
ĠWait
119
Ġdelivers
......
Ġblown
ĠEsc
ĠMath
perm
ĠUl
Ġglim
Ġfacial
Ġgreenhouse
Ġtokens
/-
ĠAnnual
ĠONE
Ġteenage
ĠPhysical
ĠLang
ĠCelt
Ġsued
ividually
Ġpatience
chair
regular
Ġaug
inv
except
ĠLil
Ġnest
fd
sum
ĠChase
Russia
ĠJennifer
Ġoffseason
Overall
Fore
Ġriot
Aud
former
Ġdefenders
ĠCT
iotic
ribly
Ġautomated
Ġpenis
Ġinsist
Ġdiagram
ĠSQL
ĠGarc
Ġwitch
client
ierra
ambers
Ġrecount
far
Very
osterone
Ġappreciated
ĠPerfect
Section
Ġdoses
ocaust
Ġcostly
Ġgrams
ĠShi
Ġwrestling
Ġ1971
Ġtrophy
Ġnerve
ĠKaz
ĠExperience
Ġpledged
Ġplayback
Ġcreativity
bye
Ġattackers
Ġholders
ĠCoach
ĠPhD
Ġtransfers
Ġcolored
ĠHindu
Ġdrown
Ġlistened
ĠWA
iasm
PO
Ġappealing
Ġdisclosed
ĠChicken
agging
Ġpleaded
Ġnavigation
ĠReturns
Ġ[[
ROR
EA
Ġphotographer
ĠRider
ippers
Ġslice
Ġerect
Ġhed
issance
ĠVikings
urious
Ġappet
oubtedly
Child
Ġauthentic
oos
ĠMaking
Ġannouncing
Ġbod
Ġmeter
ĠNine
ĠRogue
Ġworkforce
Ġrenewed
Ġorganisations
acs
PLE
Short
Ġcompounds
ĠVisit
Ġenvelop
earth
Ġsupportive
ggle
ĠBrussels
ĠGuild
Create
REL
Ġaveraged
Ġ1969
riages
Ġlengthy
Ġforgot
Okay
ĠErd
Ġdealer
Ġrecession
DD
Ġdesperately
Ġhunger
Ġsticks
Ġmph
ĠFaith
Ġintentionally
Ġdemol
ueller
ĠSale
Ġdebris
spring
Ġleap
>>>>
Ġcontainers
selling
ranean
attering
Ġcommented
ĠCM
onut
Ġwoods
especially
Ġorganize
ivic
ĠWoods
anga
squ
Ġmaj
amon
Ġaxis
Ġ1974
ĠDenmark
Ġwarrior
ĠPand
Ġoutlined
ĠBO
insula
zilla
ebook
Ġdare
Ġsearched
Ġnavigate
Sn
writing
Ġunited
Japan
ĠHebrew
Ġflame
Ġrelies
Ġcatching
ĠSho
Ġimprisonment
Ġpockets
Ġclosure
ĠFam
tim
adequ
Activity
Ġrecruiting
ĠWATCH
ĠArgentina
dest
Ġapologize
oro
Ġlacks
Ġtuned
ĠGriffin
Ġinfamous
Ġcelebrity
sson
Ġ----------------------------------------------------------------
ĠIsis
ĠDisplay
Ġcredibility
Ġeconomies
Ġheadline
ĠCowboys
Ġindef
Ġlately
Ġincentives
button
ĠMob
Aut
Ġresigned
ĠOm
camp
Ġprofiles
Ġschemes
olphins
ayed
Clinton
enh
ĠYahoo
Ġabst
Ġank
suits
Ġwished
ĠMarco
udden
Ġsphere
ĠBishop
Ġincorporated
ĠPlant
114
Ġhated
pic
Ġdonate
Ġlined
Ġbeans
Ġstealing
Ġcostume
Ġsheriff
Ġforty
Ġintact
Ġadapted
Ġtravelling
bart
Ġnicely
Ġdried
Ġscal
osity
NOTE
ĠBh
ĠBroncos
ĠIgn
Ġintimate
Ġchemistry
Ġoptimal
Deb
ĠGeneration
Ġ],
ichi
ĠWii
ĠYOUR
ventions
Write
Ġpopul
unning
ĠWor
Vol
Ġqueen
heads
KK
Ġanalyze
opic
earchers
Ġdot
legraph
astically
Ġupgrades
Ġcares
Ġextending
Ġfreeze
Ġinability
Ġorgans
Ġpretend
Ġoutlet
113
olan
ĠMall
uling
talk
Ġexpressing
ĠAlways
ĠBegin
files
Ġlicenses
%%
ĠMitt
Ġfilters
ĠMilwaukee
GN
Ġunfold
Mo
Ġnutrition
ppo
Bo
Ġfounding
Ġundermine
Ġeasiest
ĠCzech
ĠMack
Ġsexuality
ĠNixon
Win
ĠArn
ĠKin
ãĤ£
icer
Ġfortun
Ġsurfaces
aghd
Ġcarriers
ĠPART
ĠTib
Ġinterval
Ġfrustrating
ĠShip
ĠArmed
ffe
Ġboats
ĠAbraham
inis
Ġsuited
thread
iov
abul
ĠVenezuela
Ġtom
super
Ġcastle
although
ioxide
eches
Ġevolutionary
Ġnegotiate
Ġconfronted
Remember
Ġ170
Such
Ġ911
mult
ĠAbyss
urry
kees
spec
ĠBarbara
Ġbelonging
Ġvillain
istani
Ġaccountable
Ġportions
ĠDecl
Ur
ĠKate
gre
Ġmagazines
UCK
Ġregulate
omon
ĠAlmost
Ġoverview
Ġscram
Ġloot
ĠFitz
Ġcharacteristic
ĠSnake
say
ĠRico
Ġtrait
ĠJoined
aucus
Ġadaptation
ĠAirlines
Ġarchae
ĠIde
Ġbikes
Ġliterary
Ġinfluences
ĠUsed
Creat
Ġplea
ĠDefence
ĠAssass
Ġpond
ULT
)"
Ġevaluated
Ġobtaining
Ġdemographic
Ġvigil
aley
Ġspouse
ĠSeahawks
respons
ĠBelt
umatic
Ġrises
runner
ĠMichelle
Ġpotent
race
ĠPAC
Find
olesterol
ISS
ĠIntroduced
resses
ignment
Os
ĠTu
ĠDex
icides
Ġsparked
ĠLaura
ĠBryant
Ġsmiling
ĠNexus
Ġdefendants
ĠCatal
Ġdishes
shaped
Ġprolong
mt
($
ãĢĤ
Ġcalculations
ĠSame
Ġpiv
HH
Ġcancelled
Ġgrin
Ġterritories
istically
Come
ĠParent
Project
Ġneglig
ĠPrivacy
Ġammo
LECT
olutely
ĠEpic
Ġmisunder
wal
April
mos
pathy
ĠCarson
Ġalbums
ĠEasy
Ġpistol
<<
Ġ\(
target
help
Ġinterpre
conscious
ĠHousing
ĠJoint
127
Ġbeers
science
ĠFirefox
effective
ĠCabin
ĠOkay
ĠApplic
Ġspacecraft
ĠSR
vet
ĠStrange
SB
Ġcorps
iberal
efficient
Ġprevalence
Ġeconomists
118
Thread
ordable
ODE
ĠCant
=-=-
ifiable
ĠAround
Ġpole
Ġwillingness
CLA
ĠKid
Ġcomplement
Ġscattered
Ġinmates
Ġbleeding
every
Ġqueue
ĠTrain
Ġhij
Ġmelee
pleted
Ġdigit
Ġgem
official
Ġlifting
Ðµ
Requ
itutes
Ġpackaging
ĠWorkers
hran
ĠLebanon
olesc
Ġpunished
ĠJuan
Ġjam
ĠDocument
Ġmapping
icates
Ġinevitably
Ġvanilla
ĠTon
Ġwatches
Ġleagues
Ġinitiated
degree
portion
Ġrecalls
Ġruin
Ġmelt
IAN
Ġhem
Exp
Ġbaking
ĠColomb
atible
Ġradius
plug
ĠIF
etically
Ġfict
HER
ĠTap
atinum
Ġink
Ġcoh
ĠWizard
both
tex
Ġspends
ĠCurrently
ĠPit
Ġneurons
ignt
Ġrall
Ġbuses
building
Ġadjustments
Ġcried
iblical
atted
ĠZion
ĠMatter
Ġmeditation
ĠDennis
Ġours
ĠTab
Ġrankings
ortal
Ġadvers
Ġsurrender
ĠGob
cium
omas
imeter
Ġmultiplayer
Ġheroin
Ġoptimistic
Ġindicator
ĠBrig
Ġgrocery
Ġapplicant
ĠRocket
vid
Exception
pent
Ġorganizing
Ġencounters
ĠTOD
Ġjewel
Save
ĠChristie
Ġheating
Ġlazy
ĠCP
Ġcousin
Config
Ġregener
Ġnearest
Ġachieving
ENS
throw
ĠRichmond
antle
2002
Ġanten
bird
133
Ġnarc
raint
unny
ĠHispanic
ournaments
Ġprophe
ĠThailand
ĠTi
Ġinjection
Ġinherit
ravis
Ġmedi
Ġwhoever
ĠDEBUG
GP
ĠHud
Card
prom
Ġpor
Ġoverhead
Law
Ġviolate
Ġheated
Ġdescriptions
Ġachievements
ĠBeer
ĠQuant
Was
Ġeighth
ĠIv
Ġspecialized
UPDATE
ĠDelta
Pop
Jul
ĠAsk
ophy
Ġnewsletters
ĠTool
Ġgard
ĠConfeder
ĠGMT
ĠAbbott
Ġimmunity
ĠVM
Islam
Ġimplicit
wd
Ġ1944
ravity
ometric
Ġsurviving
urai
ĠPrison
Ġrust
ĠSketch
Ġbees
ĠTheory
Ġmerit
Tex
chat
Ġmim
Ġpaste
ĠKoch
Ġignorance
ĠShoot
Ġbasement
United
ĠAdvis
height
Ġfoster
Ġdetain
information
Ġneural
';
Ġproves
allery
Ġinvitation
umbers
Ġcattle
Ġbicycle
zi
Ġconsultant
Ġapology
ĠTiger
Ġ123
999
Ġindividually
rt
igion
ĠBrazilian
Ġdisturb
Ġentrepreneurs
Ġforests
cerpt
plates
pher
clipse
Ġtwitter
Ġacids
ographical
hum
ĠBald
ifully
Ġcompiler
ĠDA
Ġdonor
asi
Ġtribal
lash
ĠConfig
Ġapplicants
Ġsalaries
135
Putin
ĠFocus
irs
Ġmisconduct
ĠHaz
Ġeaten
Mobile
Muslim
ĠMarcus
viol
Ġfavorable
Ġstub
adin
ĠHob
Ġfaithful
Ġelectronics
Ġvacuum
wait
backed
economic
dist
Ġtenure
Ġsincere
ĠTogether
ĠWave
Ġprogression
Ġdenying
Ġdistress
braska
third
Ġmixing
Ġcolonial
Ġprivately
Ġunrest
aternity
Ġpremises
anti
gregation
Ġlicence
ĠHind
ĠSamuel
Ġconvincing
ĠAce
ĠRust
ĠNetanyahu
Ġhandles
ĠPatch
oriented
aho
ĠGonz
Ġhackers
claimer
Ġcustoms
ĠGran
fighters
Ġluc
Ġmanuscript
arenthood
Ġdevil
Ġwarriors
Ġoffenders
William
Ġholidays
Ġnightmare
Ġlever
ifferent
Stat
Ġexhibition
puted
ĠPure
Ġalpha
Ġenthusiasm
ĠRepresentatives
EAR
ĠTyp
Ġwheat
ĠAlf
Ġcorrection
Ġevangel
ATT
Miss
Ġsoup
Ġimplied
param
Ġsexy
ĠLux
Ġrepublic
patch
ablish
Ġicons
Ġfathers
ĠGET
ĠCarib
Ġregulated
ĠCohen
ĠBobby
Ġner
Ġbent
ventory
ĠAlong
ĠEST
ĠWallace
Ġmurders
rise
kell
ĠCommonwealth
Ġnasty
eta
ĠMIT
Ġadministered
Ġgenuinely
Editor
nick
Ġhydro
********************************
ĠBle
Ġfines
Ġgorge
ausible
rh
Ġapple
mentioned
Ġrope
otyp
HR
Ġdisappointing
Ġcage
nik
Ġdoubts
ĠFREE
prints
ĠMUST
Ġvendors
ĠInqu
Ġliberals
Ġcontractor
Ġupside
children
Ġtricky
Ġregulators
charged
liter
Ġ***
Ġrebell
lang
Ġlocals
Ġphysicians
Ġhey
arse
tm
ĠLex
Ġbehavioral
successful
FX
Ġbrick
ovic
Ġconform
Ġreviewing
Ġinsights
Ġbiology
ĠRemove
ĠExtra
Ġcommitting
induced
ignty
igm
Ġatomic
Common
ĠEM
ĠPere
ĠItems
eh
Ġpreserved
ĠHood
Ġprisoner
Ġbankruptcy
Ġgren
ushes
Ġexploitation
Ġsignatures
Ġfinan
],"
ĠMR
Ġmeg
remlin
Ġmusicians
Ġselecting
Ġexamining
INK
lated
Hi
Ġartic
Ġpets
Ġimpair
ĠMAN
Ġtablets
include
Range
Ġcaut
Ġlogs
Ġmounting
Ġunaware
Ġdynamics
ĠPalestine
ĠQuarter
ĠPurple
Ġma
ĠImport
Ġcollections
ciation
Ġsuccessor
Ġclone
Ġaiming
Ġpossessed
Ġsticking
Ġshaking
Ġlocate
ĠHockey
Turn
170
Ġfifteen
ĠHarrison
Ġcontinuously
ĠTC
ĠValent
ĠRescue
Ġbypass
amount
Ġmast
Ġprotects
Ġartistic
Ġsometime
Ġshoe
Ġshouted
ificant
etitive
ĠRegister
ĠJin
Ġconcentrated
lington
onies
Ġgenerator
yrim
ĠArmen
Ġclearing
ido
ĠTW
alph
Ġladies
Hard
Ġdialog
Ġinputs
æľ
Ġposes
Ġslots
ĠPremium
Ġleaks
Ġbosses
Ġ113
course
Acc
ĠNewton
ĠAustria
ĠMage
Ġteaches
abad
Ġwears
Ġcyl
Ġcurse
ĠSales
ĠWings
Ġpsy
Ġgaps
ĠIceland
ĠPinterest
Ġlandlord
Ġdefinitions
ĠKer
Ġsufficiently
ĠPence
ĠArchitect
Ġsurpass
Ġ114
Ġsuperhero
ĠDisease
Ġpriests
ĠCulture
Ġdefinitive
Ġsecretly
ĠDance
install
chief
ĠJessica
Would
Updated
Ġlocker
ĠKay
Ġmemorial
è¦
fat
Ġdisgu
Ġflavors
ĠBaseball
ĠResistance
Ġkicks
Ġenv
Ġteenagers
Dark
ĠCAR
Ġhalt
ĠLG
ĠGabriel
Ġfever
Ġsatur
Ġmall
Ġaffiliate
ĠSleep
ĠSpecific
ĠVel
Ġjar
ĠSacred
ĠEdwards
ĠACL
Ġretained
ĠGiant
Ġlimitation
inces
Ġrefusal
ĠTale
ĠButler
Ġaccidents
ĠCSS
Ġimported
ĠCopy
Î±
ERT
zel
Ġdivisions
hots
ĠAlb
ĠDS
Loader
Washington
atisf
ĠCreative
\.
ĠAutom
redict
Ġreceptor
ĠCarlos
Method
oka
Ġmalicious
Ġstepping
,[
ĠDad
Ġattraction
ĠEffects
ĠPirate
ĠCer
ĠIndustry
ĠRud
Ġcharter
Ġdining
Ġinsists
Ġconfigure
Ġ(#
ĠSimple
ĠScroll
UTC
175
ĠKon
Ġmarketplace
ĠãĤ
Ġrefres
Ġgates
erred
ĠPod
Ġbehave
Frank
node
Ġendorsed
hett
asive
ĠHomeland
Ġrides
ĠLeave
erness
Ġflooding
AFP
Ġrisen
Ġcontinually
Ġunanim
ĠContract
ĠPas
Ġguided
ĠChile
bd
Ġsucc
ptic
Ġcommittees
ĠLuther
ĠAnyone
Ġsab
124
Ġpixel
ĠBak
ĠTag
ĠBennett
Enter
small
ĠPresidential
Ġpul
Ġcontrace
archive
Ġcoastal
ĠKids
192
âĢ²
icky
INGTON
Ġwolf
ĠStalin
Tur
idget
amas
ĠUnless
Ġsponsor
Ġmorph
ĠChoose
Ġrunner
Ġunbel
Ġmud
ĠMana
Ġdubbed
Ġgodd
urers
window
Ġrelied
Ġcelebrating
osc
Ġ135
Ġlobbying
Ġincomplete
Ġrestriction
Ġincap
itus
Ġexpectation
ĠApollo
Ġintens
Ġsync
GH
Ġmanipulation
BY
Ġspear
Ġbreasts
Ġvolcan
ilia
Material
Ġformats
ĠBast
Ġparliamentary
Ġsnake
Ġservants
ĠTrudeau
ĠGrim
ĠArabic
ĠSCP
ĠBoys
station
Ġprospective
orde
initialized
Ġbored
ABLE
Ġaccessed
Ġtaxi
ĠShell
aiden
ursed
inates
ĠInsurance
ĠPete
September
650
Ġadventures
ĠCover
Ġtribute
Ġsketch
Ġempower
ĠØ
ĠGlenn
ĠDaw
=\"
ĠPolitics
Ġguides
Ġdioxide
ĠGore
ĠBright
ĠSierra
Ġvalued
cond
Ġpointer
Select
Ġrisky
Ġabsorb
images
Ġrefuses
Ġbonuses
___
Ġhilar
ĠFeatures
220
ĠCollector
Foot
Ġ1964
culus
Ġdawn
Ġworkout
ĠLO
Ġphilosophical
ĠSandy
ĠYouth
Ġliable
Af
blue
Ġoverturn
lessness
ĠTribune
ĠIng
Ġfactories
Ġcatches
Ġprone
Ġmatrix
Ġlogin
Ġinacc
Ġexert
sys
Ġneedle
ĠQur
Ġnotified
oulder
tx
Ġreminds
Ġpublishers
Ġnort
Ġgit
Ġflies
ĠEmily
Ġflowing
ĠAlien
ĠStrateg
Ġhardest
Ġmodification
API
ĠMY
Ġcrashes
stairs
number
Ġurging
channel
ĠFalcon
Ġinhabitants
Ġterrifying
Ġutilize
Ġbanner
Ġcigarettes
Ġsenses
ĠHolmes
Ġpractition
ĠPhillips
otto
Ġcompile
Model
ĠKo
Ġ[]
Americans
ĠTerms
Ġmedications
ĠAna
Ġfundamentally
ĠNotice
Ġweaker
Ġ0000
Ġgarlic
Ġoutbreak
Ġeconomist
ĠBirth
Ġobstacles
arcer
ĠOrthodox
Ġplacebo
ĠCrew
aspberry
ĠAngels
Ġdischarge
Ġdestructive
117
ĠRising
Ġdairy
late
Ġcollision
ĠTigers
eanor
ocumented
ĠInvalid
Ġdont
ĠLiter
ĠVa
Ġhydrogen
Ġvariants
ĠBrowns
Ġ1965
Ġindigenous
Ġtrades
Ġremainder
Ġswept
ĠImpact
Ġredist
Ġunint
graduate
ãĥķ
ĠWILL
ãģ®ç
ĠCritical
Ġfisher
Ġvicious
Ġreversed
Year
ĠSox
Ġshootings
Ġfilming
Ġtouchdowns
aires
mel
Ġgrandfather
Ġaffection
ingle
Ġoverly
Additional
Ġsupreme
ĠGrad
Ġsporting
Ġmercy
ĠBrooks
ounty
Ġperforms
Ġtightly
Ġdemons
Ġkillings
Ġfaction
ĠNova
auts
Ġundoubtedly
arin
Ġunderway
rak
Ġliv
ĠRegion
Ġbriefing
sers
cloud
ĠMik
usp
Ġprediction
azor
Ġportable
ĠGand
Ġpresenting
Ġ1080
Â»
ushi
ĠSpark
thereum
Ġjustification
ĠNy
Ġcontractors
mingham
ĠStyle
åħ
ĠChronicles
ĠPicture
Ġproving
Ġwives
sett
Ġmolecules
ĠFairy
Ġconsisting
Ġpier
alone
inition
Ġnucle
json
Ġgotta
Ġmobil
Ġverbal
arium
Ġmonument
ucked
Ġ256
Tech
minecraft
ĠTrack
Ġtile
Ġcompatibility
asis
Ġsadd
Ġinstructed
ĠMueller
Ġlethal
Ġhormone
Ġorche
else
Ġskelet
Ġentertaining
Ġminimize
again
Ġundergo
Ġconstraints
Ġcigarette
ĠIslamist
Ġtravels
ĠPanthers
lings
Care
Ġlawsuits
uras
Ġcryst
Ġlowered
Ġaerial
Ġcombinations
Ġhaun
Ġcha
Ġvine
Ġquantities
Ġlinking
bank
Ġsoy
Bill
ĠAngela
Ġrecipient
ĠProtest
Ġsocket
Ġsolidarity
ĠâĨ
mill
Ġvaries
ĠPakistani
Dragon
Ġune
Ġhorizon
ÂłÂłÂłÂłÂłÂłÂłÂł
Ġprovinces
Ġfrankly
Ġenacted
notes
['
Ġ192
ocracy
Ġendorsement
Ġovertime
True
Lab
licted
ĠDNC
Ġbeats
ĠJamie
152
ĠINT
Contact
Ġaccounted
hash
ĠPackers
pires
Ġlesbian
Ġamendments
Ġhopeful
ĠFinland
Ġspotlight
Ġconfigured
Ġtroubled
Ġgaze
ĠCalgary
Ġreliability
Ġinsurg
swer
buy
ĠSkin
Ġpixels
Ġhandgun
Ġparas
Ġcategor
ĠEL
ĠRex
Indeed
Ġkinda
Ġconjunction
ĠBryan
ĠManufact
yang
Plus
SQL
ishment
Ġdominate
Ġnail
Ġoath
Ġerupt
ĠFine
itbart
ĠChip
ĠAbd
ĠNam
Ġbuyer
Ġdissent
Leaks
Contin
Ġrider
ĠSomeone
Ġillusion
cin
ĠBoeing
Ġinadequ
ovation
iants
Ġrebuild
450
ĠDestiny
SW
ĠTill
Hit
iaz
ĠBangl
achers
ĠReform
Ġsegments
Ġsystematic
dc
ĠConservatives
Ġportal
hor
ĠDragonbound
Ġdragged
omo
Ġthee
advert
ĠReports
ĠEt
Ġbarrels
August
Ġcomparisons
Ġhex
Ġanthrop
"[
borough
abi
Ġpictured
playing
ĠAddress
ĠMirror
Smith
Ġtires
ĠNPR
AAAA
Ġclassification
ĠThan
ĠHarm
ĠRA
Ġrejection
mination
Ġranged
ĠFalls
DI
Host
ãĤ´
ĠExample
listed
thirds
Ġsafegu
brand
Ġprobable
Canada
ITION
ĠQaeda
Ġchick
Ġimports
hit
loc
WW
Ġblew
Ġanytime
Ġwholes
iked
Ġcalculation
create
ĠOri
Ġupgraded
Ġappar
utory
ĠMol
Brit
ĠJong
INAL
ĠStarting
Ġdice
urtle
Ġrelying
closure
Ġprofitable
Ġslaughter
ĠManual
caster
Ġ"$
Ġfeather
ĠSimply
ieves
Ġdeterior
ĠPCI
Ġstamp
Ġflaws
Ġshade
hammer
Ġpassport
Ġconting
amel
Ġobservers
Ġneglect
ĠRB
ĠBrotherhood
Ġskeptical
family
usk
Ġemotionally
âĻ
ĠBeta
asonable
idity
ĠMul
Ġkicking
ĠCarm
ollah
VERTIS
ĠAthen
Ġladder
ĠBullet
å£
0001
ĠWildlife
ĠMask
ĠNan
Rev
Ġunacceptable
legal
Ġcrowded
agi
ĠCox
je
Ġmorality
Ġfuels
Ġcables
Ġmankind
ĠCaribbean
Ġanchor
Ġbyte
ĠOften
ĠOz
Ġcrafted
Ġhistorian
ĠWu
Ġtowers
ĠCitizens
Ġhelm
Ġcredentials
Ġsingular
ĠJesse
Ġtackles
Ġcontempt
Ġafore
ĠShadows
Ġnil
Ġurgent
apple
blood
Ġvon
Ġoffline
Ġbreathe
Ġjumps
Ġirrelevant
oxic
omal
important
Jim
Ġgloves
arming
depth
Ġtalents
ookie
ĠSB
Ġpalm
uffs
esta
IGH
Ġcanon
ĠVerizon
ĠPle
Ġcoupled
velt
Ġfundraising
ĠGetting
ĠDLC
Ġmathematical
ĠHS
ĠCardinals
telling
Ġsponsors
ĠÏ
ĠBulls
option
Ġpropose
Ġmemorable
Ġembraced
Ġdeclining
Health
eda
Ġ};
Ġspam
mile
Ġpitcher
ĠEight
Ġcaring
utic
role
Ġairline
ernandez
ĠAthlet
Ġcertification
uxe
riger
Ġempir
Ġsensation
Ġdism
Ġbolt
Ġevolve
House
Ġconsultation
ĠDuty
Ġtouches
ĠNathan
Ġfaint
had
"(
ĠConsumer
ĠExtreme
Ġ127
ĠHerm
ĠSacrament
izoph
Ġanxious
ulously
Ġsocially
ĠUTC
Ġsolving
ĠLetter
History
educ
Price
));
Ġreload
amic
Ġpork
Ġdiscourse
Ġtournaments
airo
ĠKur
ĠCosta
Ġviolating
Ġinterfere
Ġrecreational
uffle
Ġspeeches
Ġneeding
Ġremembers
Ġcredited
nia
focused
amera
Ġbru
umbs
ĠCuban
Ġpreceding
Ġnonsense
acial
Ġsmartphones
ĠStories
Sports
ĠEmergency
ouncing
efined
Ġber
Ġconsulting
Ġmasters
heastern
."[
ĠRunning
Ġsuscept
ĠFeng
America
prises
stitial
ĠWeekly
ĠGreater
modules
ifter
Graphics
uler
Ġwholly
Ġsuppress
Ġconcealed
Ġhappily
Ġaccepts
ĠEnjoy
Ġrivers
ĠExcept
225
ĠNHS
ĠMcConnell
Ġpussy
ferred
utable
Ġattain
Ġ>=
Ġdeposits
rophic
Ġnotorious
ĠShaw
ilitation
Ġepidemic
allic
Ġsmallest
ovich
Ġaccessories
perties
Ġsurplus
ĠMech
Ġambig
ĠImmigration
Ġchim
eval
Ġpracticing
ĠMystery
Ġdomains
ĠSilicon
apps
Ġkilometers
ea
ĠSmash
Ġwarranty
Ġnost
sil
rev
Jon
ĠDublin
Ġtastes
Ġbout
great
error
Ġswitches
ĠBapt
DO
oki
Ġsourced
produ
Ġattachment
ĠIssue
ĠQuestion
Join
Ġfitted
Ġunlawful
^^
erek
Ġauthentication
Ġstole
Ġaccountability
label
Search
Ġalbeit
atican
funded
ĠAdding
ĠIQ
Ġsubmar
lit
aque
ĠLearning
Ġinteger
Master
ĠChrom
Ġpremier
Op
ĠLiu
Ġblessed
ĠGlobe
ĠResponse
Ġlegitim
ĠMerkel
Ġdisposal
Â´
Ġgauge
peat
Ġinduced
Ġquestionable
arthy
ĠVit
ĠFeed
Until
Ut
worthy
RY
ĠHerald
ĠHammer
Ġmedal
ĠRivers
ĠHack
Ġclarify
Ġtracked
Ġautonomous
Ġtenant
ĠQatar
erie
Ġgrim
ĠMonitor
Ġresistant
ĠSpec
ĠWells
NAS
148
Ġminers
iotics
Ġmisses
116
gian
git
ĠEyes
pres
Ġgraduated
Ġangel
Ġsynchron
Ġefficiently
Ġtransmitted
Harry
Ġglobally
ENCE
ĠMontana
raged
ĠPrevention
Ġpiss
ĠLl
Ġshelf
ĠBJP
ĠTestament
ĠLate
iker
ĠHapp
ĠJulian
hall
Ġspont
Ġshutdown
Ġinconsistent
Ġsubscribers
Ġskeleton
ĠNebraska
Ġinspire
ĠVoid
Feed
Ġangles
ĠSprings
Ġbenchmark
Ġvaccines
izophren
sexual
uffed
Ġshine
ĠKath
Ġgesture
inea
Ġrip
Ġoppression
Ġconscience
bt
ĠLum
Ġincidence
ĠFa
wr
Ġmineral
ĠSpurs
alky
Ġthunder
Ġopio
Being
ĠPalm
Ġwasted
Ġlb
iaries
ĠInitiative
Ġcurric
Ġmarker
ĠMcL
Ġextensions
ĠPv
ĠArms
Ġofferings
Ġdefenses
Ġvendor
Ġcontradict
ĠColin
Ġreddit
Ġperipher
122
Ġsins
Edit
ICT
Soft
ĠShah
Ġadministrator
ĠTrip
Ġpornography
Ġtuition
inence
ĠProgress
Ġcatalog
Ġsuite
Ġhike
Ġreproductive
engine
Ġdrought
ĠNoah
Ġ230
Ġdude
Ġrelaxed
Ġpartition
Ġparticipant
Ġtelesc
Ġfeas
ĠFF
owner
Ġsweeping
Ġlenses
Ġmatchup
ĠRepl
ournals
Ġcredible
Ġgrandmother
Ġthermal
Ġsubscribing
Ġidentities
colm
UCT
Ġreluctant
users
ĠCort
Ġassisted
OSS
ATIONS
ISH
Ġpharmaceutical
icable
adian
ĠSonic
ĠFury
ĠMong
AH
ĠPsychology
Ġphosph
Ġtreats
ŃĶ
Ġsteadily
ĠHello
Ġrelates
Ġclue
Expl
auth
Ġrevision
Ġeld
osion
Ġbron
144
rikes
Ġmines
Ġblanket
ĠFail
eled
ĠImagine
ĠPlanned
aic
Request
Mad
ĠHorse
ĠEagle
Ġcapac
157
Ġling
ĠNice
ĠParenthood
minster
ogs
ensitive
Nothing
Ġcarn
Fin
ĠPE
Ġrifles
ĠLP
Sand
ĠguiActive
Ġtourist
CNN
Ġunveiled
Ġpredecessor
}{
uber
Ġoffshore
Ġoptical
ĠRot
ĠPearl
eton
Ġstared
Ġfarther
atility
contin
ĠGy
ĠFoster
ĠCoc
rients
Ġdesigning
ĠEconomy
ONG
Women
ĠNancy
erver
Ġmascul
Ġcasualties
Ġ225
ĠSullivan
ĠChoice
Ġaster
ws
Ġhotels
Ġconsiderations
Ġcouch
ĠStrip
ĠGn
Ġmanipulate
lied
Ġsynthetic
Ġassaulted
Ġoffenses
ĠDrake
Ġimpe
October
ĠHeritage
hl
ĠBlair
Unlike
Ġgrief
Ġ450
Ġopted
Ġresignation
ilo
Ġverse
ĠTomb
Ġupt
Ġaired
ĠHook
ĠMLB
Ġassumes
outed
ĠVers
Ġinferior
Ġbundle
ĠDNS
ographer
Ġmultip
ĠSouls
Ġillustrated
Ġtactic
Ġdressing
Ġduo
Conf
Ġrelent
Ġcant
Ġscarce
Ġcandy
ĠCF
Ġaffiliated
Ġsprint
ylan
ĠGarcia
Ġjunk
Print
exec
Crit
Ġportrait
iries
ĠOFF
Ġdisputes
WR
Love
ãģĦ
ĠReyn
Ġhipp
opath
Ġfloors
ĠFeel
Ġworries
Ġsettlements
ĠPos
Ġmosque
Ġfinals
Ġcrushed
ĠProbably
ĠBot
ĠMans
ĠPeriod
Ġsovereignty
Ġseller
Ġapost
Ġamateur
Ġdorm
Ġconsuming
Ġarmour
ĠRoose
Ġintensive
Ġeliminating
ĠSunni
ĠAleppo
jin
Ġadvise
pal
ĠHalo
Ġdescent
Ġsimpler
Ġbooth
STR
Later
ĠCave
===
Ġmol
Ġfist
Ġshotgun
supp
Ġrobbery
Effect
Ġobscure
ĠProfessional
Ġembassy
Ġmilitant
Ġincarcer
Ġgenerates
Ġlaunches
Ġadministrators
Ġshaft
Ġcircular
Ġfreshman
ĠWes
ĠJoel
ĠDrew
ĠDuncan
ĠApparently
sight
ĠInternal
ĠIndividual
ĠFE
Ġbore
ĠMt
Ġbroadly
ĠOptions
ountain
ipes
ĠVideos
204
Ġhills
Ġsimulation
Ġdisappointment
itan
ĠLaboratory
Ġupward
Ġboundary
Ġdarker
hart
Ġdominance
Cong
ĠOracle
ĠLords
Ġscholarship
ĠVincent
ede
ĠRah
Ġencourages
rov
Ġquo
Ġpremise
ĠCrisis
ĠHolocaust
Ġrhythm
Ġmetric
club
Ġtransported
Ġnod
ĠPist
Ġancestors
ĠFreder
thumbnails
ĠCE
OND
Phil
venge
ĠProducts
castle
Ġqualifying
ĠKaren
VERTISEMENT
Ġmighty
Ġexplanations
Ġfixing
Di
Ġdeclaring
Ġanonymity
Ġjuven
ĠNord
ĠDoom
ĠActually
Ok
phis
ĠDesert
Ġ116
IK
ĠFM
Ġincomes
VEL
okers
Ġpecul
Ġlightweight
gue
Ġaccent
Ġincrement
ĠChan
Ġcomplaining
ĠBaghd
Ġmidfielder
Ġoverhaul
Process
ĠHollow
ĠTitans
Small
manuel
ĠUnity
ĠEvents
Sty
Ġdisproportion
nesty
enes
ĠCod
Ġdemonstrations
ĠCrimson
ĠOH
Ġenrolled
Ġcel
ĠBrett
Ġaide
Ġheels
Ġbroadband
Ġmarking
Ġwizard
ĠNJ
ĠChiefs
Ġingredient
Ġdug
ĠShut
urchase
endor
Ġfarmer
ĠGoldman
129
155
Order
Ġlion
iably
Ġstain
array
ilitary
ĠFAQ
Ġexploded
ĠMcCarthy
ĠTweet
ĠGreens
eking
ln
ensen
Ġmotorcycle
Ġparticle
Ġcholesterol
Bron
Ġstair
Ġoxid
Ġdesirable
ibles
Ġtheor
forcing
Ġpromotional
ovo
boot
ĠBonus
rawling
Ġshortage
ĠPsy
Ġrecruited
Ġinfants
Ġtestosterone
Ġdeduct
Ġdistinctive
Ġfirmware
built
145
Ġexplored
Ġfactions
Ġvide
Ġtattoo
Ġfinancially
Ġfatigue
Ġproceeding
constitutional
Ġmiser
Ġchairs
gging
ipple
Ġdent
Ġdisreg
çĶ
stant
llo
bps
akening
Ġabnormal
ĠERA
å£«
ĠHBO
ĠMAR
Ġconcess
Ġservant
Ġaspir
lav
ĠPanel
amo
Ġprecip
Ġrecordings
Ġproceeded
Ġcolony
ĠTang
ablo
Ġstripped
Left
too
Ġpotatoes
Ġfinest
%).
Ġcrap
ĠZach
abases
ĠGoth
Ġbillionaire
wolf
Ġsanction
SK
Ġlogged
Po
eyed
unal
Ġcricket
Ġarmies
Ġuncovered
Cloud
Ã³n
Ġrebounds
Ġmes
Oper
Pac
Ġnationally
Ġinserted
pict
Ġgovernance
Ð¸
Ġprivileges
GET
Ġfavorites
imity
Ġlover
them
empl
Ġgorgeous
Ann
Ġslipped
Ġveto
Bob
Ġslim
ucc
ĠFame
uddenly
Ġdenies
ĠMaur
Ġdistances
Ġwanna
tar
ĠSER
ĠâĪ
Ġlemon
athetic
Ġliteral
Ġdistinguished
Ġanswering
GI
Ġreligions
ĠPhilos
ĠLay
Ġcompos
irements
ĠKos
inez
rolling
Ġyoungest
andise
ĠBorn
Ġaltar
amina
ĠBoot
voc
Ġdigging
Ġpressures
Ġlen
264
Ġassassination
ĠBirmingham
ĠMyth
Ġsovereign
ĠArtist
ĠPhotograph
Ġdepicted
Ġdispens
orthy
Ġambul
integ
ĠCele
ĠTibet
Ġhierarchy
Ġcu
Ġpreseason
ĠPeterson
Ġcolours
Ġworrying
Ġbackers
ĠPalmer
ĠÎ¼
Ġcontributor
Ġhearings
Ġurine
ĠÙ
ourgeois
Similar
ĠZimmer
something
ĠUSC
Ġstrengths
ĠFI
Ġlogging
Asked
ĠThai
inqu
ĠWalt
Ġcrews
itism
301
Ġsharply
umed
Ġredirect
rators
Inf
ĠWeapons
Ġteasp
1999
Live
ĠEspecially
ĠSter
ĠVeterans
Ġintro
otherapy
Ġmalware
Ġbreeding
Ġmolecular
ĠRoute
ĠComment
ochem
Ġain
Season
Ġlinebacker
Ä«
ĠEconomics
esar
ĠLives
ĠEmma
Ġkin
ĠTerrit
Ġplanted
oton
ĠButter
ĠSpons
PER
Ġdungeon
Ġsymbolic
Ġfilmed
Ġdiets
Ġconcludes
Ġcertainty
ĠFormat
Ġstrangers
format
ĠPhase
Ġcopied
Ġmetres
lda
ĠUsers
Ġdeliberate
Ġwashed
ĠLance
imation
Ġimproper
ĠGenesis
ickr
ĠKush
Ġrealise
Ġembarrassing
alking
bucks
Ġverified
Ġoutline
years
ĠIncome
202
Ġzombies
Final
ĠMillenn
Ġmodifications
ĠVision
ĠMoses
verb
iterranean
ĠJet
Ġnaval
ĠAgg
Ġurl
Ġvictories
Ġnonetheless
Ġinjust
ĠFact
çļ
Ġinsufficient
review
facebook
Ġnegotiating
Ġguarantees
imen
utenberg
Ġgambling
Ġcongr
Loading
Ġnevertheless
Ġpresidents
ĠIndustrial
Ġ118
Ġpoured
ĠTory
Ġ175
Ġ:=
Scott
angered
Tok
Ġorganizers
Mat
ĠGrowth
Ġadul
Ġensures
Ġ117
é¾įå
Ġmassacre
Ġgrades
before
ADVERTISEMENT
ĠSlow
ĠMMA
âĢĶ"
ĠVatican
Qaeda
Ġowe
6666
ĠSorry
ĠGrass
Ġbackgrounds
Ġexhausted
Ġclan
Ġcompromised
ĠElf
ĠIsaac
enson
Invest
IFA
Ġinterrupted
ãĥīãĥ©
Ġtwisted
ĠDragons
Mode
ĠKremlin
Ġfertil
heres
phan
ĠNode
fed
ĠOrc
Ġunwilling
Cent
Ġpriorit
Ġgraduates
Ġsubjective
Ġissuing
ĠLt
Ġviewer
Ġwoke
Thus
brook
Ġdepressed
Ġbracket
ĠGor
ĠFighting
Ġstriker
Report
ĠPortugal
Ġneo
wed
199
Ġfleeing
shadow
identified
USE
Steam
Ġstretched
Ġrevelations
arted
ĠDw
Ġalignment
eston
ĠJared
Sep
Ġblogs
update
gom
risk
Ġclash
ĠHour
Ġruntime
Ġunwanted
Ġscam
Ġrack
Ġenlight
onest
ĠFerr
Ġconvictions
Ġpiano
Ġcirculation
ĠWelcome
Ġbacklash
ĠWade
Ġreceivers
otive
Jeff
Ġnetworking
ĠPrep
ĠExplorer
Ġlecture
Ġuploaded
ĠMeat
BLE
ĠNazis
ĠSynd
stud
roots
rians
Ġportrayed
Ġ??
ĠBuddha
sun
Robert
ĠComplex
Ġoversee
Ġstealth
Title
ĠJobs
ĠKum
Ġappreciation
ĠMOD
Ġbasics
Ġclips
Ġnursing
Ġproposition
Ġrealised
ĠNYC
Ġallocated
rium
aran
ĠProduction
ĠVote
Ġsmugg
Ġhunter
azer
ĠChanges
Ġfluct
yon
Array
Ġkits
Water
Ġuncommon
Ġresting
ells
would
Ġpursued
Ġassertion
ometown
ĠMosul
ĠPlatform
iolet
Ġshareholders
Ġtrails
Pay
ĠEnforcement
types
ĠAnonymous
Ġsatisfying
ilogy
Ġ('
wave
city
Steve
Ġconfrontation
ĠEld
Capt
ahan
htm
ĠCtrl
ONS
230
ifa
holding
Ġdelicate
Ġjaw
ĠGoing
orum
Sal
Ġdull
ĠBeth
Ġprisons
Ġego
ĠElsa
avorite
ĠGang
ĠNuclear
Ġspider
atsu
Ġsampling
Ġabsorbed
ĠPharm
ieth
Ġbucket
ĠRecomm
OF
ĠFactory
ANCE
Ġbacter
Has
ĠObserv
121
Ġpremiere
Develop
Ġcurrencies
Cast
Ġaccompanying
ĠNashville
Ġfatty
ĠBrend
Ġlocks
Ġcentered
ĠUT
aughs
orie
ĠAffordable
vance
DL
emet
Ġthrone
ĠBluetooth
Ġnaming
ifts
ADE
Ġcorrected
Ġpromptly
ĠSTR
Ġgenome
Ġcope
Ġvalley
Ġrounded
ĠKend
alion
pers
Ġtourism
Ġstark
vl
Ġblowing
ĠSchedule
std
Ġunhappy
Ġlitigation
cedes
Ġandroid
Ġintegral
erers
uded
tax
Ġreiter
ĠMotors
ociated
Ġwonders
ĠApost
ucking
ĠRoosevelt
fram
Ġyields
Ġconstitutes
awk
Interest
Ġinterim
Ġbreakthrough
ĠCher
Ġprosec
ĠDj
ĠMT
Resp
ĠPT
Ġsperm
edit
BT
Linux
country
league
Ġdick
Ġoct
Ġinserting
Ġscra
ĠBrewing
Ġ1966
Ġrunners
Ġplun
idy
ĠDian
Ġdysfunction
Ġexclusion
Ġdisgr
Ġincorporate
Ġreconc
Ġnominated
ĠArcher
draw
achelor
Ġwritings
Ġshallow
Ġhast
ĠBMW
ĠRS
Ġthigh
Ġ1963
Ġlamb
Ġfavored
agle
Ġcooler
ĠHours
ĠGU
ĠOrigin
Ġglimpse
--------------------
Lim
Ġcheek
Ġjealous
-'
Ġharness
ĠPoison
Ġdisabilities
neapolis
Ġoutlook
Ġnotify
ĠIndianapolis
Ġabrupt
nsic
Ġencrypted
Ġforfe
reath
Ġrabb
Ġfoundations
Ġcompliment
ĠInterview
ĠSwe
Ġadolesc
Ġmonitors
ĠSacramento
Ġtimely
Ġcontempl
Ġpositioned
Ġposters
phies
iovascular
void
ĠFifth
Ġinvestigative
OUN
Ġintegrate
ĠINC
isha
iblings
ĠRequest
ĠRodriguez
Ġslides
ĠDX
Ġfeminism
Ġdatas
Ġbend
irus
ĠNigeria
Fox
Change
Ġairplane
ĠLaden
Ġpublicity
ixty
Ġcommitments
Ġaggregate
Ġdisplaying
ĠArrow
Ġ122
Ġrespects
android
six
ĠSha
Ġrestoration
)\
WS
oys
Ġillustrate
without
126
ĠâĶĤ
Ġpickup
nels
Ġ....
food
ĠFen
)?
Ġphenomena
Ġcompanions
ĠWrite
Ġspill
Ġbridges
ĠUpdated
ĠFo
Ġinsects
ASHINGTON
Ġscare
iltr
ĠZhang
Ġseverity
Ġindul
149
ĠCoffee
Ġnorms
Ġpulse
ĠFT
Ġhorrific
ĠDestroy
ĠJSON
Ġolive
Ġdiscusses
Rest
Elect
ĠWinn
ĠSurviv
ĠHait
Sure
oped
Ġrooted
ĠSke
ĠBronze
Ġlol
Default
Ġcommodity
redited
Ġlibertarian
Ġforbidden
Ġgran
à¨
Ġlag
enz
drive
Ġmathematics
Ġwires
Ġcritically
Ġcarbohyd
ĠChancellor
ĠEddie
Ġbanning
ĠFri
Ġcomplications
etric
ĠBangladesh
Ġbandwidth
Stop
ĠOriginally
Ġhalfway
ynasty
shine
Ġtales
rities
avier
Ġspinning
ĠWHO
Ġneighbourhood
bach
Ġcommerce
ĠSle
BU
Ġentrepreneur
Ġpeculiar
ĠComments
fre
320
ICS
Ġimagery
ĠCanon
ĠElectronic
short
((
Dig
Ġcommem
uced
Ġinclined
ĠSummon
Ġcliff
ĠMediterranean
Ġpoetry
Ġprosperity
ĠRece
Ġpills
member
Ġfinale
unc
ĠGig
ä½
Ġlod
Ġbackward
-+
ĠForward
Ġthri
sure
Ġsoap
ĠFX
RES
ĠSexual
oulos
Ġfoolish
Ġrighteous
Ġcoff
terrorism
ustain
oter
Ġabuses
next
Ġabusive
Ġthereafter
Ġprohibition
ĠSUP
Ġdip
Ġripped
Ġinherited
Ġbats
stru
GT
Ġflawed
phabet
Ġfog
doors
Ġimaging
Ġdigits
ĠHungary
Ġarrog
Ġteachings
Ġprotocols
ĠBanks
à¸
pound
ĠCurt
.")
./
Ġexemption
endix
ĠMull
Ġimproves
ĠGamer
dimensional
Icon
ĠMargaret
Status
dates
Ġintends
Ġdepict
Ġparked
Joe
ĠMarines
chnology
!).
Ġjudged
Ġweights
Ray
Ġapartments
hester
Ġreinforce
Ġoffender
occup
Ġsore
ept
ĠPHP
ĠBrow
Ġauthorization
ĠRisk
ĠDelaware
ĠQU
Ġnotifications
Ġsunlight
Ġexclude
dat
Ġmesh
ĠSudan
Ġbelonged
Ġsubway
Ġnoon
ĠInterior
olics
ĠLakers
Ġcoding
Disclaimer
Calif
Old
Ġdisl
?????
Ġconfirms
Ġrecruitment
Ġhomicide
Consider
ĠJeffrey
fty
};
Ġobjection
doing
ĠLeo
Want
Ġglow
ĠClarke
ĠNorman
Ġverification
Ġpacket
ĠFormula
Ġplag
esville
Ġshouting
Ġov
ĠREC
ĠBub
Ġninth
Ġenerg
Ġvalidity
Ġups
jack
Ġneighboring
ĠNec
eworks
ĠHab
arez
Ġspine
Ġeventual
ĠLeaders
ĠCarn
Ġprobation
Ġromance
msg
ĠMechanical
ERY
Rock
Ġpartisan
Node
assets
minent
Ġforeigners
Ġtestify
ĠUsually
lords
ĠGren
ĠPowell
BIL
Ġsr
Ġaddict
Ġshells
Ġsigh
ĠYale
ternity
Ġ750
EU
ĠRifle
Ġpatron
ema
ĠBannon
anity
Ġtropical
ĠVII
cross
Everything
ĠISO
Ġhumble
assing
ĠFIG
Ġupdating
yson
Ġcalcium
Ġcompetent
Ġsteering
Prot
ĠSY
ĠFinals
ĠRug
159
137
ĠGolf
Ġ126
Ġaccommodation
ĠHughes
Ġaesthetic
artisan
ĠTwilight
Ġprince
ĠAgriculture
ĠDisco
Ġprecedent
Ġtyping
authorized
Option
ĠAub
lishes
acht
mag
Peter
ĠUFO
monton
ĠLith
Ġarom
Ġsecuring
Ġconfined
private
Ġswords
Ġmarkers
Ġmetabolic
select
ĠCurse
ĠOt
gressive
Ġincumb
ĠSaga
Ġpriced
Ġclearance
Content
Ġdrilling
Ġnotices
Ġbourgeois
Ġvest
Ġcookie
ĠGuardians
rys
inyl
Ġ124
Ġplausible
ongh
ĠOdin
Ġconception
ĠYuk
ĠBaghdad
ĠFlag
Austral
ĠIBM
Ġinternationally
ĠWikiLeaks
IED
Ġcyn
Ġchooses
ĠPill
Ġcombining
Ġradi
ĠMohammed
defense
atching
Subject
iciency
Frame
Ġ{"
Ġchess
Ġtimer
190
Ġtin
Ġordinance
emetery
Ġaccusing
Ġnoticeable
Ġcentres
Ġlid
ĠMills
imgur
Ġzoom
ergic
Ġcompression
prim
find
Ġsurg
Ġpand
ĠKee
ĠChad
cellence
oyle
Ġsocialism
ĠTravis
ĠMHz
Ġguild
ALLY
ĠSubscribe
ĠRelated
Ġoccurrence
itching
Ġfictional
Ġcrush
ĠEA
cod
mix
ĠTriple
Ġretrieve
Ġstimulus
Ġpsychiat
ĠDoor
Ġhomosexuality
Ġelementary
Ġcellular
idian
ĠLaun
Ġintriguing
Ġfoam
ĠBass
idi
itsu
Ġassure
Ġcongrat
Ġbusinessman
ĠBoost
close
Ġlied
Ġsciences
ĠOmega
ĠGraphics
Ġ<=
spoken
Ġconnectivity
Saturday
ĠAvengers
Ġtoggle
Ġankle
Ġnationalist
model
ĠPool
ophobia
Var
ĠMons
atories
Ġaggressively
Clear
Forge
acters
Ġhedge
Ġpipes
Ġblunt
Ġsq
Ġremotely
Wed
asers
Ġrefriger
Ġtiles
Ġrescued
Ġcomprised
insky
Ġmanif
avanaugh
Ġprolifer
Ġaligned
xml
Ġtriv
Ġcoordination
ĠPER
ĠQuote
134
bf
ĠSaw
Ġtermination
Ġ190
Ġadditions
Ġtrio
Ġprojections
Ġpositively
Ġinclusive
Ġmembr
1990
older
Ġpracticed
inkle
Arch
Ġstarters
arius
Ġintermediate
ĠBenef
ĠKiller
Ġinterventions
ĠKil
ĠFlying
Inv
Ġpremature
Ġpsychiatric
Ġindie
Ġcollar
ĠRainbow
afi
Ġdisruption
ĠFOX
casting
Ġmisdem
cro
Ġwipe
ardon
Ġbast
ĠTommy
ĠRepresentative
Ġbelly
ĠPO
ĠBreitbart
132
Ġmessaging
Should
References
ĠGRE
istical
LP
ĠCav
ĠCrazy
Ġintuitive
keeping
ĠMoss
Ġdiscontin
ĠModule
Ġunrelated
ĠPractice
ĠTransport
Ġstatistically
orns
Ġsized
pu
Ġcaf
ĠWorlds
ĠRodgers
ĠLun
ĠComic
living
Ġcared
Ġclimbed
){
Ġconsisted
Ġmedieval
folk
Ġhacked
Ġdire
ĠHermione
Ġtended
ceans
Daniel
went
Ġlegislators
Ġredes
games
Ġgn
amiliar
Ġ++
ggy
threat
Ġmagnet
Ġperceive
Ġzip
Ġindictment
Ġcritique
gard
ĠSafe
ĠCream
Ġadvent
oba
Ġvowed
ousands
Ġski
Ġabortions
uart
Ġstunned
Ġadvancing
Ġlacked
Ġ\"
Ġschizophren
Ġelegant
Ġconferences
Ġcanceled
ĠHudson
ĠHopefully
Ġtrump
Ġfrequencies
Ġmeteor
ĠJunior
ĠFleet
ĠMalcolm
ĠTools
Ġ........
Ġhobby
ĠEuropeans
Ġ1500
ĠInto
Ġsway
ĠAppro
ĠCompl
Community
Ġtide
ĠSummit
ä»
Ġintervals
ĠEther
Ġhabitat
ĠStevens
lishing
ĠDomain
Ġtriggers
Ġchasing
Ġcharm
ĠFlower
itored
Ġblessing
Ġtextures
Five
Ġliquor
RP
FIN
Ġ1962
CAR
Unknown
Ġresil
ĠLily
Ġabundance
Ġpredictable
rar
Ġbullshit
leen
chet
Mor
Much
ä¹
Ġemphasized
Ġcrust
Ġprimitive
Ġenjoyable
ĠPictures
Ġteammate
pler
ĠTol
ĠKane
Ġsummoned
thy
rama
ĠHonda
Ġrealizing
Ġquicker
Ġconcentrate
clear
Ġ210
ĠErdogan
aris
Ġresponds
ĠBI
Ġeligibility
Ġpushes
ĠIdaho
Ġaggrav
Ġruins
urations
Ġbans
Ġanat
share
Ġgrind
hin
umen
Ġutilities
ĠYankees
Ġdatabases
ĠDD
Ġdisplaced
Ġdependencies
Ġstimulation
hun
houses
ĠPretty
ĠRavens
ĠTODAY
Ġassociates
Ġtherape
cled
Ġdeer
Ġrepairs
rentice
Ġreceptors
Ġremed
ĠCe
Ġmarriages
Ġballots
ĠSoldier
Ġhilarious
opl
138
Ġinherently
Ġignorant
Ġbounce
ĠEaster
RELATED
ĠCurrency
EV
ãĥŀ
ĠLead
Ġdeceased
Brien
ĠMusk
JS
Ġmerge
hearted
creat
mitt
mund
ĠâĢĭ
ĠBag
Ġprojection
Ġjava
ĠStandards
ĠLeonard
Ġcoconut
ĠPopulation
Ġtraject
Ġimply
Ġcuriosity
ĠDB
ĠFresh
ĠPor
Ġheavier
neys
gomery
Ġdeserved
Ġphrases
ĠGC
Ġyeast
desc
Death
Ġreboot
Ġmetadata
ICAL
Ġrepay
ĠIndependence
Ġsuburban
icals
Ġatop
Ġallocation
generation
ĠGram
Ġmoisture
Ġpine
ĠLiberals
Ġaides
Ġunderest
ĠBerry
Ġceremon
370
astrous
ĠPirates
Ġtense
ĠIndustries
ĠAppeals
ĠNear
Ġè£ıç
Ġlovers
ĠCAP
ĠCraw
Ġgiants
Ġefficacy
Element
ĠBehavior
ĠToyota
Ġintest
Priv
AI
Ġmaneuver
Ġperfection
Ġbang
paper
rill
George
border
inters
ĠSeth
Ġclues
ĠLevi
ĠRevenue
147
Ġvapor
Ġfortunate
Ġthreatens
Ġvet
Ġdependency
ersed
article
ĠBlizzard
Ġchlor
Ġminus
ĠBills
Ġcryptocurrency
Ġmetabolism
tering
Ġpestic
steps
ĠTreasure
racted
ĠConstant
Ġtemp
139
ĠDetective
urally
Ġrecovering
Ġcortex
Ġ144
closed
Ġprejudice
aunted
Ġstorms
ĠNOW
Ġmachinery
Address
Ġcompelled
270
Ġdespair
bane
Ġvegetable
Ġbeds
Learn
Ġcolorful
Ġspike
Ġmargins
Ġsympathy
Ġworkshop
ĠCBC
Sat
Ġburns
ĠGender
Ġ129
ĠCable
Ġdebts
ĠTheresa
Ġreflecting
Ġairst
Ġrim
ramid
Ġweaknesses
Writ
oggle
ti
ĠCharge
Ġweighed
Ġ(.
Ġlaughter
Ġrouter
ĠDemocracy
Dear
Ġhasht
Ġdy
Ġhints
running
Ġfinishes
arus
Mass
result
ascus
Ġvintage
Ġconqu
Ġwildly
acist
Ġlingu
Ġprotagonist
strom
teenth
ĠSolo
mac
filled
Ġrenown
itives
Ġmotive
ĠAntar
ĠMann
ĠAdjust
Ġrockets
Ġtroubling
ei
Ġorganisms
assis
Christian
Ġ145
ĠHass
Ġswall
Ġwax
ĠSurvival
VS
ĠMurd
vd
standard
Ġdragons
Ġacceleration
rational
final
Ġpaired
ĠEthereum
Ġinterfaces
Ġresent
Ġartifacts
Å«
arel
Ġcompetitor
ĠNicholas
ĠSurface
cpp
ĠTot
Ġeconomically
Ġorganised
Ġenforced
inho
Ġvarieties
Ġabdom
ĠBailey
idav
ĠSalv
paid
Ġaltitude
essert
ĠGutenberg
area
opoulos
Ġprofessors
iggs
ĠFate
hey
Ġ3000
Dist
Ġtwins
cill
ĠMaps
Ġtraps
Ġweed
ĠKiss
Ġyoga
Ġrecipients
ĠWestminster
Ġpools
ĠWalmart
188
ĠSchools
attack
ĠARM
paragraph
Warning
jl
Ġselfish
anchez
ĠHeights
Fre
ĠSoph
Ġ--------------------------------
tml
333
Ġraids
Ġsatellites
KEY
Ġlasts
ÑĤ
Ins
ĠDame
Ġunpredict
///
ghai
Ġartillery
Ġcruise
Ġgel
ĠCabinet
Ġblows
ĠEsp
Ġproximity
othe
ĠSkills
ĠUpper
obo
ĠNDP
Ġenjoys
Ġrepeating
ĠConstruction
ĠQuestions
Hillary
Ġuint
Ġprocessors
ĠGibson
ĠMultiple
qa
ĠBom
ĠMiles
ventional
Ġhurts
skin
ĠAIDS
Ġadvisers
ĠRoot
Ġmethodology
ĠDale
Ġdeton
ĠKnowledge
sequently
Ġ121
Ġconnects
Cy
ĠDanger
Ġcontributors
ĠBent
Ġbrass
ĠGuns
into
ĠFortune
Ġbroker
balance
Ġlengths
Ġvic
Ġaveraging
Ġappropriately
ĠCamera
Ġsandwich
ĠCDC
Ġcoordinate
Ġnavig
Ġgoodness
laim
Ġbrake
Ġextremist
ĠWake
ĠMend
ĠTiny
ĠCOL
ĠRF
ĠDual
ĠWine
Case
Ġrefined
Ġlamp
Lead
Ġbapt
ĠCarb
ĠSadd
ĠMinneapolis
PDF
Early
ĠHidden
Its
ĠTIME
Ġpap
Ġcommissioned
ĠFew
ĠColts
ĠBren
Ġbothered
Ġlikewise
Exper
ĠSchw
cry
nn
ĠMitch
imon
MG
bm
UMP
rays
Ġregistry
Ġ270
achine
rella
anting
00000
Ġruined
spot
Ġta
Ġmaximize
Ġinconven
Dead
Human
Enabled
ĠMarie
Ġchill
ĠParadise
Ġstarring
ĠLatino
ĠProtocol
ĠEVER
Ġsuppliers
message
ĠBrock
Ġserum
âĸĪâĸĪâĸĪâĸĪ
Ġencomp
Ġambition
uese
Ġarrows
Andrew
Ġantenna
Ġ1961
ĠBark
Ġbool
ãĤª
ĠStorage
Ġrailway
Ġtougher
ĠCad
Ġwashing
Py
']
embed
ĠMemphis
ackle
Ġfamously
ĠFortunately
ovies
Ġmindset
Ġsneak
ĠDh
RAW
ĠSimpson
Ġlivest
Ġlandmark
Ġcement
Low
Ġthrilled
ĠCourse
inel
Ġchuck
idate
global
Ġwhit
Ġï¿½
adays
ski
ĠSV
Ġviruses
306
ĠRespons
Ġtheaters
ĠBranch
ĠGeneva
ĠMK
Ġunbeliev
Ġcommunist
Original
ĠReceived
ĠTransfer
ĠArg
Input
ĠStrategy
Ġpalace
thening
Dri
Ġsentencing
umbnail
Ġpins
recy
Ġsiblings
Getting
ĠBU
ĠNorthwest
Ġprolonged
ĠSakura
Comb
ĠBour
Ġinadequate
ĠKash
Ġusername
ĠImprove
Ġbattling
ĠMAC
Ġcurriculum
Ġsoda
ĠCannon
Ġsensible
spons
December
Ġwicked
ĠPengu
Ġdictators
ĠHearts
ogyn
Ġsimilarities
ĠStats
Ġhollow
itations
":[
Ġhover
ĠListen
sch
Sund
Ġcad
ĠParks
Ġlur
Ġhype
ĠLem
NAME
isure
Friday
Ġshoots
Ġcloses
Ġdb
ĠRidge
ĠDifferent
Ġreplies
ĠBroadway
opers
Ġintoler
ĠZeus
akespe
Ġproprietary
Ġrequesting
Ġcontrollers
ĠMIN
imedia
becca
Ġexpans
Ġoils
Bot
ĠChand
Ġprinter
Ġtopped
ĠPOL
ĠEarlier
Social
avin
Ġdecreases
ĠSeb
Ġspecifications
ĠBlast
ĠKurt
Ġfreel
Brown
Ġdilig
roe
ĠProblem
ĠQuad
Ġdecentral
ĠVector
anut
Ġplugins
ĠGregory
Ġfucked
elines
ĠAmbassador
take
Ġcleans
ongyang
Anonymous
stro
"}
aline
ĠOdd
ĠEug
216
Ġboil
ĠPowers
Ġnurses
Obviously
ĠTechnical
Ġexceeded
ORS
Ġextremists
Ġtraces
expl
Ġcomr
ĠSach
)/
Ġmasks
Ġsci
Bon
Ġregression
wegian
Ġadvisor
itures
ĠVo
example
ĠInstruct
Ġsiege
Ġreductions
ptr
Ġstatutory
Ġremoves
Ġpuck
redits
Ġbee
Ġsalad
Ġpromotions
ĠJoshua
withstanding
ETH
ĠCha
imus
Ġexpenditure
aunting
Ġdelighted
Ġ155
beh
Ġcarpet
ĠSpart
Ġjungle
lists
Ġbullying
ĠNobel
ĠGlen
Ġreferenced
Ġintroduces
sein
Ġchopped
glass
ĠWrest
Ġneutrality
ĠâĻ
Ġinvestigator
Ġshelves
Ġunconstitutional
Ġreproduction
Ġmerchant
mia
Ġmetrics
Ġexplosives
ĠSonia
Ġbodily
Ġthickness
Ġpredominantly
ĠAbility
Ġmonitored
ICH
Ġ].
ĠMartinez
Ġvisibility
Ġqueries
Ġgenocide
ĠWarfare
Query
Ġstudios
Ġembry
Ġcorridor
Ġcleaned
complete
ĠMH
Ġenrollment
INGS
Ġimpacted
Ġdisastrous
ĠYun
ĠClaire
ĠBasically
yt
usterity
Ġindirectly
wik
Ġdod
ĠCarr
Ġamp
Ġprohibit
ĠInitial
ĠRd
iji
Ġeducate
corn
iott
ĠBeauty
Ġdetective
ĠConn
since
Ġstagger
Ġobese
Ġbree
ologic
isse
walker
Ġblades
Ġlawful
func
ĠBehind
Ġappetite
Ġ(*
Ġtennis
Ġoffspring
Ġjets
Ġstructured
Ġaforementioned
Nov
Ġscaling
fill
Ġstew
Ġcurb
ĠStephan
edIn
SF
obic
éŃĶ
oug
ĠMM
Ġgenetically
opez
136
Ġumb
ancers
Ġcohort
Ġmerchandise
Ġimposing
ĠLegislature
ĠArchive
ivia
ĠNaval
Ġoffences
Ġmiracle
Ġsnapped
Ġfoes
Ġextensively
ĠRaf
Ġcater
edience
Kit
ĠBin
Ġrecommends
ĠCities
Ġrigid
ĠREAD
ĠNoble
ĠTian
Ġcertificates
antis
oiler
ĠBuddhist
did
Ġsurveyed
Ġdownward
Ġprints
ĠMotion
ronics
ĠSans
ossibly
uctions
Ġcolonies
ĠDanish
unit
Ġspoil
Ġadvisory
berries
Plan
Ġspecification
ophers
ĠResource
Ġshirts
prisingly
communications
Ġtrivial
Ġmentioning
isexual
Ġsupplements
Ġsupervision
BP
vor
Ġwit
Ġcooldown
Ġplaintiff
ĠReviews
ĠSri
ĠMint
ĠSugar
Ġafterward
ĠPriest
ĠInvestment
ogene
ĠTaking
Ġstretching
Ġinflammation
ĠTehran
Ġlining
Ġfreezing
ĠEntity
Ġinspiring
special
price
Ġsue
ĠPorter
ounge
ETA
ĠDerek
ĠLuis
uo
ymph
Ġexterior
ihil
ĠAshley
inator
Ġnutrients
ĠThrones
Ġfinances
ĠInspect
Ġspecially
ĠRequired
ĠPTS
ĠViolence
ointed
shots
Ġexcerpt
coon
INS
ĠGri
Ġrecognised
Week
Young
Ġvom
isle
ĠCurry
ĠBuddh
Ġnotebook
Ġdurable
/?
ĠGad
ĠPupp
Ġforgive
park
Ġpersonalities
analysis
clamation
Ġelevator
Ġwarehouse
ĠRole
unn
Ġillustration
ĠScan
Ġatmospheric
Import
ANC
ricted
fu
010
Ġarche
Ġrewarded
akespeare
Ġinternally
ĠRBI
alker
Ġelephant
owitz
ĠPizza
Ġbipartisan
Ã©s
Ġslowed
ĠStark
Ġoverride
OUS
Ġ320
undreds
ĠDeck
ĠCensus
bee
146
otor
Ġip
Ġub
ocations
ĠButton
rice
Ġcripp
fff
Ġoriginated
Ġoverwhelmed
appa
Ġforemost
âĢĳ
ĠLEG
release
eatured
atches
Ġreps
Ġlending
ĠReference
ĠClient
165
venth
Complete
ĠPatrol
Ġsworn
cam
Ġshuttle
ĠRalph
Ġhometown
-,
onal
ĠBP
åı
Ġpersuade
ĠAlexand
Ġcombines
Ġvivid
ĠLag
Ġencoding
Ġsalvation
wen
ĠRecovery
iya
University
ĠBiden
Ġbudgets
ĠTexans
fits
Ġhonored
Ġpython
TD
###
clone
Ġblink
ĠLiquid
Ġunemployed
Ġclashes
ĠCounsel
Ġdirecting
Ġpunct
ĠFalcons
Ġshark
ĠDamascus
Ġjeans
Ġembark
Ġseize
Ġupwards
280
ĠEz
ĠAnything
Ġexotic
lower
ĠCreator
ĠUm
Ġsuburbs
berger
ĠWend
Ġmint
ĠXX
ĠDro
Ġsuffers
Ġherb
tree
Ġfragile
Ġflooded
ĠAlcohol
olean
nyder
ĠKO
Fram
Ġ136
Ġowed
ĠMelee
ĠHash
Ġwhisk
Ġsudo
rr
Quick
appro
Ġii
ĠExamples
hee
Ġpromotes
perature
kar
ĠHonor
Ġsodium
ĠLif
rosso
intendent
Ġcorrespondent
Found
secret
Ġidentifies
agne
Ġlou
ĠPP
Ġcoincidence
move
Ġmilitia
Ġinfiltr
ĠPrimary
Ġpitching
ĠIb
ĠGOOD
ãĤ¸
ĠWizards
iral
ĠVenus
RR
ĠâĢķ
ĠCasey
Ġsadly
Ġadmire
Ġembarrassed
cb
Mel
Ġtubes
Ġbeautifully
ĠQueensland
Below
rez
quet
pleasant
ĠÂ«
Camp
Ġdecisive
1998
ĠLamb
utton
hn
ĠJagu
aunder
ĠCord
Ġclerk
Ġcaffe
Ġwiped
Ġreim
ĠMountains
Ġimprisoned
Ġdevelops
ĠPra
Ġmodeling
Anyone
ancel
ĠSit
Ġshields
Ġlawn
Ġcardiovascular
Ġdemonstrating
Ġparse
ĠIsraelis
Ġeuros
143
Ġglorious
inski
ecd
Ġconditioning
Ġhelpless
Ġmicrosc
ĠHarbor
Ġstakes
Ġ260
Ġunequ
ĠFloyd
Ġdamp
Ġapparatus
ĠLaws
Ġcounters
Ġinduce
atable
ĠAhmed
Ġslam
November
Ġpersist
Ġimminent
Ã¡n
Ġshred
Ġphases
ĠEdmonton
ĠArmstrong
ĠMeet
ĠKitty
ÑĢ
circ
ĠAdult
Ġarose
ĠXen
Dan
gow
Ġsuperf
ĠAdmir
Ġendure
Ġkeyword
yrus
Ġyarn
Ġpathway
ĠHopkins
midt
Ġcensorship
dependent
Ġinstructor
Sources
Ġtoe
Ġballoon
Nob
Ġswear
ĠCastro
Ġgloss
ĠKavanaugh
Ġremarkably
Photos
ĠNom
ĠSoutheast
yers
Ġvalidation
Ġcannon
ĠVictory
ĠPierre
Ġcautious
Audio
Ġfetch
ĠGift
ĠHyp
Ġremedy
ZE
Ġscent
Ġbeard
ĠRut
-"
Ġpatents
Hy
Ġunjust
Ġpotato
Ġforthcoming
Ġchef
ĠRift
affe
ĠROM
ĠLaunch
Ġpads
ĠNeo
Ġonset
Ġsqueeze
safe
Ġprefix
ĠTM
ĠNearly
ĠClinical
ĠMental
otiation
ĠUnic
antry
ĠCir
Ġepit
Ã¦
Ġextracted
versely
riad
Ġstrains
Ġtops
Ġpoem
ĠRandy
ĠMaple
THER
upiter
ĠSSD
ļé
Ġuncon
pering
Ġslept
iners
Ġunderwater
ĠEvidence
gone
205
Ġhistorians
Ġsynthesis
Ġfrog
basketball
Ġvibrant
Ġsubord
Ġ365
ĠDial
Ġcooperate
HAHA
Ġgreeted
158
Ġjazz
Ġintox
ĠWalking
Ġsupervisor
ĠFusion
ĠMercedes
send
Ham
sd
nl
Ġtours
ĠFIFA
Ġculp
gd
304
Ġpleas
Ġillustrates
ĠColombia
Ġhighlighting
ĠSummary
Ġexposing
ĠDru
Ġirony
ritional
ĠCarroll
ĠEllis
Pict
ĠRapt
Ġadapter
Ġunm
Ġcorpse
Ġcelebrities
Den
atum
ĠApocalypse
ĠWag
lining
Ġhormones
Rub
ĠXi
ĠVaults
208
alkyrie
inosaur
Ġfeeds
vity
Ġdefeating
Wait
Ġemphasize
ĠSteelers
yrinth
leys
ĠWhenever
Currently
ĠClock
Ġcollectively
anyon
ĠJP
Ġmentality
Ġdownloads
Ġsurroundings
ĠBarnes
Ġflagship
Ġindicators
Ġgrapp
January
ĠElemental
ĠAthena
ibal
Ġsights
Ġcapita
ĠTreaty
Ġvoiced
ĠGaz
lette
Ġya
Ġexpired
Legend
Hot
nature
Ġunstable
Ġ280
Ãº
Comment
ALE
Ġquests
Ġhandler
nis
Ġversatile
Ġconceal
engeance
ĠInteractive
Ġobsessed
ĠDogs
Ġcracked
Sound
sv
ĠDylan
roads
fx
ĠCatholics
ĠHag
Ġslammed
Ġglowing
sale
Ġtissues
ĠChi
nee
Ġcher
sic
urrection
Ġbacon
ulatory
)."
Ġirregular
FORM
assed
Ġintentional
Ġcompensate
ĠSpeaking
ĠSets
153
Ġconventions
bands
emade
Ġecc
ĠWinston
ĠAssassin
ĠBelgian
Ġdependence
Ġniche
Ġbark
ĠJazz
Ġdisadvantage
Ġgasoline
Ġ165
çļĦ
essa
module
angular
OY
ĠTreatment
itas
olation
ĠArnold
Ġfeud
ĠNest
Ġtheatre
ewater
Ġminors
olicy
ĠHaven
division
Ġtrunk
Far
ĠPull
Ġcapturing
Ġ1800
ĠTeen
Ġexempl
Ġclinics
ĠBurg
Ġsubstit
Ġpayload
ĠLav
ĠTroy
ĠWitness
Ġfragments
Ġpasswords
Ġgospel
ĠGin
Ġtenants
olith
Six
Previous
ĠAges
ĠDarwin
Ġblat
Ġempathy
smith
bag
ĠEcho
ĠCamb
ĠMadd
ĠBoo
Ġrede
ĠBurning
Ġsmoothly
ĠAdrian
ĠVampire
ĠMonsters
steam
Style
Ma
rea
ĠDwar
alyst
ursor
Ġelimination
Ġcrypto
cht
ĠEternal
âĢ¦]
ĠSorce
Ill
NER
Ġuh
Conclusion
wage
Ġrespir
Ġreminis
hetical
Ġgy
Ġutilized
icidal
Ġ1900
Ġhunters
ĠSwan
ĠReact
Ġvisitor
ĠThanksgiving
308
Posts
Ġhips
1997
omers
Ġknocking
ĠVehicle
Ġtil
Ġ138
Ġmi
ĠInvestigation
ĠKenya
Ġcasino
Ġmotives
Ġregain
rex
Ġweekends
Ġstabbed
boro
Ġexploited
ĠHAVE
ĠTelevision
cock
Ġpreparations
Ġendeav
ĠRemote
ĠMaker
ĠProdu
ĠEvan
Ġinformational
ĠLouisville
154
ĠDreams
Ġplots
ĠRunner
Ġhurting
Ġacademy
ĠMontgomery
nm
ĠLanc
ĠAlz
210
elong
Ġretailer
Ġarising
Ġrebellion
Ġblonde
played
Ġinstrumental
Cross
Ġretention
Ġtherapeutic
Ġseas
Ġinfantry
ĠClint
Ġprompting
Ġbitch
Ġstems
ĠKra
Ġthesis
ĠBog
rued
Ġkings
Ġclay
ificent
ĠYES
ĠThing
ĠCubs
veyard
elsh
inarily
ĠEy
ĠRolling
Ġevolving
India
Ġrecognizes
Ġgraduation
isers
Ġfertility
ĠMilan
Command
Ġboxing
Ġ1943
Ġgluten
ĠEmir
Ġidol
Ġconceived
ĠCreation
Merit
uddy
ussions
ĠLieutenant
ietal
Ġunchanged
ĠScale
ĠCrimea
balls
atorial
Ġdepths
Ġempirical
Ġtransm
Ġunsafe
missible
comfort
156
Ġmechanic
002
lins
Ġsmoked
Pos
Ġslowing
Ġlav
Texas
Ġcheating
ĠMetropolitan
ethyl
Ġdiscovering
asse
Ġpencil
ĠPyongyang
Ġcloset
ĠSheet
ĠEntry
oustic
Ġmyst
erate
ariat
Ġminerals
Ġmusician
ĠPul
ĠMaz
249
Ġpermissions
Ġiv
enary
ickers
ĠBing
hea
enable
Ġgriev
Ġasserted
ĠColonel
Ġaffidav
wo
Ġseated
ĠRide
Ġpaintings
ĠPix
Ġ137
ishi
umbai
gotten
ĠEarl
Ġinning
Ġcensus
Ġtravelled
ĠConsult
185
bind
Ġsimplicity
Ġoverlooked
ĠHelpful
Ġmonkey
Ġoverwhelmingly
Blood
ĠFlint
ĠJama
ĠPresent
ĠRage
ĠTA
ptive
Ġturnout
wald
ĠDolphins
ĠVPN
Ġonion
Ġcrafting
mma
ĠMercury
Ġarrange
Ġalerts
ĠOT
zbollah
Ġgases
ĠRichardson
sal
lar
Ġfrost
Ġlowering
Ġacclaim
Ġstartups
ĠGain
essment
Ġguardian
äºº
ĠPie
ĠLinks
Ġmerits
Ġawake
Ġparental
Ġexceeds
Ġidle
ĠPilot
ĠeBay
ĠAccept
ipeg
Cam
ĠKot
Ġtraders
olitics
unker
ĠPale
osi
anmar
Ġ1947
ĠFell
estial
itating
GF
ĠSr
ifted
Ġconnector
ĠBone
illes
260
hma
Ġoverlap
ĠGitHub
Ġcleaner
ĠBaptist
ĠWAS
Ġlungs
Ñģ
ĠBUT
Ġcite
Ġpitched
reatment
Ġtrophies
ĠNu
386
ĠPride
Ġattendees
[]
179
Ġspatial
Ġprizes
ĠReligion
Ġshowcase
ĠCategory
vidia
Target
Property
?,
Ġfusion
pie
ĠUCLA
Ġsoundtrack
Ġprincess
ĠCaval
should
Ġlimbs
Background
Ġlonely
Ġcores
ĠTail
sheet
Ġ132
Ra
ãĤ«
ĠBolt
Ġbooked
Ġadminister
Ġequals
wy
Ġobserving
ĠBaron
ĠAdobe
Ġvirgin
ĠSocialist
Move
ghazi
ĠLinda
212
Ġbrewing
Ġmerchants
burse
Ġdivor
Ġmetals
ĠNer
Ġsums
ĠEnemy
Ġenvision
Ġgranting
ĠHoney
ĠSkyrim
Ġsocio
graded
Ġselective
WASHINGTON
Ġ1948
ĠSirius
ĠGross
activity
ĠIvan
Ġfurious
BSD
ĠPrevious
Ġresponsive
Ġcharitable
Ġleaning
ĠPew
Ġviolates
\\\\\\\\
ĠComing
wire
Ġpoet
Ġresolutions
command
ĠPortuguese
Ġnickname
Ġdeaf
February
Ġrecognise
Ġentirety
Ġseasonal
placed
ĠTelegraph
Ġmicrophone
ouring
Ġgrains
Ġgoverned
Ġpostp
ĠWaters
inement
Ġundocumented
ĠComcast
Ġfox
Ġassaults
reon
many
ĠJenkins
ĠAnyway
Ġassessments
Ġdowns
ĠMouse
Ġsuperb
kt
ĠDow
Ġtaxation
401
Ġsmiles
Ġundertaken
Ġexh
Ġenthusiastic
Ġtwent
Ġgovernmental
Ġautonomy
ĠTechnologies
ĠChain
Ġprevalent
fb
Ġnicotine
ogram
job
Ġawaiting
ĠMenu
Ġdeputies
kov
ishops
Button
ĠShanghai
Ġdiesel
ĠDuck
Ryan
ĠPCs
NF
jury
ente
Ġinaccurate
eddy
Whatever
Ġshowc
ĠNad
odus
etr
Ġplaintiffs
ĠWOR
ĠAssange
Ġprivat
Ġpremiums
Ġtam
URL
Ġelites
ĠRanger
ottenham
ĠHoff
ĠAthens
Ġdefinite
Ġsighed
Ġevenly
211
ĠAmber
akia
Ġmailing
Ġcrashing
ĠConfederate
rugged
Wal
ĠDepths
Ġjuvenile
Ġreactor
Introduction
ĠDeluxe
1995
ĠSanchez
ĠMead
ivable
:-
ĠPlanning
ĠTrap
quin
ĠProtect
vered
Information
Ġkidney
innamon
las
Ġpolicing
Ġtolerate
ĠQi
Ġbiased
Fort
ĠKi
save
Ġprivileged
Ġbeasts
ĠGlas
ĠCinem
Ġcomeback
Sunday
Ġextinction
hops
Ġtransmit
Ġdoubles
ĠFlat
167
Ġdisputed
Ġinjustice
foo
Vict
roleum
ĠJulie
Context
ĠRarity
issue
Component
Ġcounseling
anne
dark
Ġobjections
uilt
Ġgast
Ġplac
Ġunused
ãĥĩ
ĠTrial
ĠJas
hedral
obb
Ġtemporal
ĠPRO
ĠNW
ĠAnniversary
Large
Ġtherm
Ġdavid
Ġsystemic
ĠShir
mut
ĠNept
address
Ġscanning
Ġunderstandable
Ġcanvas
Cat
ĠZoo
Ġangels
LO
ĠStatement
ĠSig
ovable
ĠAway
sharing
ocrats
stated
Ġweighing
Nor
wild
Bey
Ġastonishing
ĠReynolds
Ġopener
Ġtrainer
Ġsurgical
pn
Ġadjusting
wheel
Ġfrown
ervative
Ġsuspend
Within
tein
Ġobstacle
Ġliberties
ymes
Ġuranium
ansom
anol
uba
ĠLoss
Ġarous
ĠHenderson
Wow
spl
cur
ĠÂŃ
Ġtheirs
Damage
Ġdownloading
Ġdiscern
ĠSto
ĠFla
Ġhath
ĠAj
Ġunpleasant
European
expensive
Ġscreenshot
ĠUV
Ġallied
ĠPersian
Ġmonopoly
Ġatom
ĠRedskins
"><
Ġcancell
Ġcinema
131
fair
ĠAlfred
Ġduck
args
223
ĠISI
Ġsignaling
inar
Ġlaughs
Ġforwards
Ġreckless
Ġlisteners
ativity
Ġvastly
nant
Less
ĠHunting
ĠScientific
ITED
Ġknight
ĠHTC
usa
tmp
Ġrude
ĠLegendary
Ġarises
Bad
ĠClaim
peg
Ġrealities
Think
ĠÂ°
Ġrode
Ġstrive
Ġanecd
Ġshorts
Ġhypothes
Ġcoordinated
ĠGandhi
ĠFPS
RED
Ġsusceptible
Ġshrink
ĠChart
Help
Ġion
deep
ribes
ĠKai
ĠCustomer
Summary
Ġcough
wife
Ġlend
Ġpositioning
Ġlottery
ĠCanyon
Ġfade
Ġbronze
ĠKenny
Ġboasts
ĠEnhanced
record
Ġemergence
Ġakin
ĠBert
itous
âĸĳ
Ġstip
Ġexchanged
omore
alsh
Ġreservoir
Ġstandpoint
WM
Ġinitiate
Ġdecay
Ġbrewery
Ġterribly
Ġmortal
levard
Ġrevis
NI
elo
Ġconfess
ĠMSNBC
Ġsubmissions
Controller
Ġ202
ĠRuth
});
ĠAzure
Ġ."
206
ĠMarketing
Ġlaund
iencies
Ġrenowned
ĠTrou
ĠNGO
blems
Ġterrified
Ġwarns
Ġpert
Ġunsure
480
alez
ultz
ĠOutside
Ġstyl
ĠUnderground
Ġpanc
Ġdictionary
Ġfoe
riminal
ĠNorwegian
Ġjailed
Ġmaternal
Ã©e
ĠLucy
cop
Cho
Ġunsigned
ĠZelda
ĠInsider
ĠContinued
Ġ133
ĠNaruto
ĠMajority
169
ĠWo
ãĤĵ
Ġpastor
Ġinformal
Ð½
anthrop
join
ãģĹ
itational
NP
ĠWriting
fn
ĠBever
195
Ġyelling
Ġdrastically
Ġeject
Ġneut
Ġthrive
ĠFrequ
oux
Ġpossesses
ĠSenators
ĠDES
ĠShakespeare
ĠFranco
ĠLB
uchi
Ġincarn
Ġfounders
Function
Ġbrightness
ĠBT
Ġwhale
ĠTheater
mass
ĠDoll
Something
Ġechoed
ĠHex
crit
afia
Ġgoddess
Ġeleven
ĠPreview
ĠAurora
Ġ401
ulsive
ĠLogan
inburgh
ĠCenters
ĠONLY
ĠAid
Ġparadox
Ġhurd
ĠLC
Due
court
Ġoffended
Ġevaluating
ĠMatthews
Ġtomb
Ġpayroll
Ġextraction
ĠHands
ifi
Ġsupernatural
ĠCOMM
]=
dogs
Ġ512
ĠMeeting
Richard
ĠMaximum
Ġideals
Things
mand
ĠRegardless
Ġhumili
buffer
Little
ĠDani
ĠNak
Ġliberation
ĠAbe
ĠOL
Ġstuffed
aca
inda
raphic
Ġmosqu
Ġcampaigning
Ġoccupy
Squ
rina
ĠWel
ĠVS
Ġphysic
Ġpuls
rint
oaded
ETF
ĠArchives
Ġvenues
hner
ĠTurbo
Ġlust
Ġappealed
quez
ilib
ĠTimothy
Ġomn
dro
Ġobsession
ĠSavage
1996
Global
Jes
214
Ġsliding
Ġdisappro
ĠMagical
Ġvoluntarily
gb
aney
Ġprophet
ĠRein
ĠJulia
ĠWorth
aurus
Ġbounds
ieu
)))
Ġcrore
ĠCitizen
Sky
Ġcolumnist
Ġseekers
ondo
ISA
ĠLength
Ġnostalg
Ġnewcom
Ġdetrim
entric
375
ĠGE
Ġautop
Ġacademics
AppData
ĠShen
Ġidiot
ĠTransit
Ġteaspoon
Wil
KO
ĠComedy
>,
Ġpopulated
WD
Ġpigs
ĠOculus
Ġsympathetic
Ġmarathon
198
Ġseizure
sided
Ġdop
irtual
Land
ĠFloor
osaurs
...]
Ġlos
Ġsubsidiary
EY
ĠParts
ĠStef
ĠJudiciary
Ġ134
Ġmirrors
Ġket
times
Ġneurolog
Ġcav
ĠGuest
Ġtumor
scill
ĠLloyd
Est
Ġclearer
Ġstereotypes
Ġdur
nothing
Reddit
Ġnegotiated
------------------------
235
Ġflown
ĠSeoul
ĠResident
ĠSCH
Ġdisappearance
ĠVince
grown
Ġgrabs
ril
ĠInfinite
ĠTwenty
Ġpedestrian
Ġjersey
ĠFur
ĠInfinity
ĠElliott
Ġmentor
Ġmorally
Ġobey
secure
iffe
Ġantibiotics
angled
ĠFreeman
ĠIntroduction
Jun
Ġmarsh
icans
ĠEVENTS
ochond
Wall
iculty
Ġmisdemeanor
Ġly
Thomas
ĠResolution
Ġanimations
ĠDry
Ġintercourse
ĠNewcastle
ĠHog
ĠEquipment
177
Ġterritorial
Ġarchives
203
Filter
ĠMunich
Ġcommanded
ĠWand
Ġpitches
ĠCroat
Ġratios
ĠMits
Ġaccumulated
ĠSpecifically
Ġgentleman
acerb
Ġpenn
Ġaka
ĠFuk
Ġintervene
ĠRefuge
ĠAlzheimer
Ġsuccession
ohan
does
Lord
Ġseparat
Ġcorrespondence
Ġshiny
Prior
Ġsulf
Ġmiserable
Ġdedication
().
Ġspecialists
Ġdefects
ĠCult
ĠXia
Ġjeopard
ĠOre
Ability
Ġlear
Ġambitions
ĠBMI
ĠArabs
Ġ1942
Ġpreservation
ificate
Ġashamed
loss
ĠRestaur
Ġresemble
Ġenrich
ĠKN
ĠClan
float
Ġplayable
ITT
Ġharmony
arrison
ĠWeinstein
were
Ġpoisoning
ĠComput
ĠWordPress
major
ĠValve
Fan
ĠThrow
ĠRomans
ĠDepression
ados
Ġtortured
Ġbalancing
bottom
Ġacquiring
ĠMonte
ardi
Ġaura
Ġ##
ĠStanding
ĠAtlas
CF
Ġintrins
ĠBenghazi
Ġcamping
Ġtapped
blade
strous
ĠRabb
ĠWritten
tip
ĠNeigh
sterdam
ĠAllow
ĠHealing
ĠRhod
num
Ġcaffeine
ĠPercent
Ġboo
Ġapples
305
Ġwelcoming
Ġapplaud
Ġausterity
Â±
ĠReality
efe
å®
Ġsucks
Ġtabs
ĠPayPal
Ġbackpack
Ġgifted
abulary
ĠScout
irteen
Ġchin
Ġomitted
Ġnegatively
Ġaccessing
ĠEarn
Ġambulance
Ġheadphones
Ġ205
ĠRefresh
president
ĠKitchen
ĠEntered
ĠSnyder
005
omical
Ġborrowed
ĠNem
Ġaviation
Ġstall
rimination
Ġuniforms
itime
ĠSimmons
energy
ablished
yy
qualified
Ġrallies
ĠStuart
flight
Ġgangs
rag
Ġvault
lux
ĠCompar
Ġdesignation
209
ĠJos
dollar
zero
Ġwells
303
Ġconstituents
Ġheck
Ġcows
Ġcommanders
Ġdifferential
ĠCatherine
299
Ġvalve
Ġbrace
Ġperspectives
cert
fact
icularly
ĠMcN
planes
Ġintric
Ġpeas
ovan
Ġtossed
retch
ĠLopez
Ġunfamiliar
death
ĠApart
ĠChang
Ġrelieved
rophe
Ġairports
Ġfreak
util
Mill
ĠChin
ĠOwen
male
ĠBroken
ĠWinds
rob
rising
Ġfirefighters
Ġauthoritarian
Ġ148
Bitcoin
external
Ġbrowsers
ichever
orian
Ġunb
Ġpoke
ĠZot
Mid
ĠPopular
Ġcovert
Ġcontributes
Ġ650
Ġcontention
Gate
Ġconsoles
Ġchromos
ĠIX
Ġvisually
ĠEisen
Ġjewelry
Ġdelegation
Ġaccelerate
ĠRiley
Ġslope
Ġindoor
itially
Ġhugely
Ġtunnels
Ġfined
Ġdirective
Ġforehead
ustomed
Ġskate
Music
gas
Ġrecognizing
ambo
Ġoverweight
ĠGrade
ÙĬ
Ġsounding
Ġlocking
ĠREM
Store
Ġexcav
ĠLikewise
ĠLights
Ġelbow
ĠSupply
wic
Ġhandsome
1994
Coll
Ġadequately
ĠAssociate
Ġstrips
Ġcrackdown
Ġmarvel
ĠKun
Ġpassages
@@@@
ĠTall
Ġthoughtful
namese
Ġprostitution
business
Ġballistic
personal
cig
izational
Round
ĠÂłĠÂłĠÂłĠÂł
ĠColeman
Ġadmitting
ĠPlug
Ġbitcoins
ĠSuz
Ġfairness
Ġsupplier
Ġcatastrophic
ĠHelen
oqu
Marc
ĠArticles
gie
Ġendangered
Ġdestiny
ĠVolt
olia
axis
Ġcheat
Ġunified
ICO
quote
302
ĠSed
Ġsuppression
Ġanalyzing
Ġsquat
Ġfiguring
Ġcoordinates
Ġchunks
Ġ1946
Ġsubp
Ġwiki
ĠForbes
ĠJupiter
ĠErik
imer
ĠCommercial
\)
Ġlegitimacy
Ġdental
ĠMean
Ġdeficits
550
Originally
ĠHorror
Ġcontamination
llah
Ġconfisc
ĠClare
TB
ĠFailed
aned
Ġruler
ĠController
Ġfeminists
Fix
gay
207
Ġrabbit
Third
owntown
Ġglue
Ġvolatile
Ġshining
Ġfoll
Ġimpaired
Ġsupers
æĪ
Ġclutch
ļéĨĴ
Ġprolet
Ġ(!
Ġyelled
ĠKiev
ĠErn
ĠShock
KB
Ġsituated
query
ĠNas
Ġannex
character
ĠHoliday
Ġautomation
ĠJill
ĠRemastered
Ġlinem
Ġwilderness
ĠHorizon
ĠGuinea
AZ
Ġmainland
Ġsecrecy
LEASE
Ġpunk
ĠProvince
(),
Speed
Ġhanding
ĠSebast
Sir
rase
Ġjournals
Ġcongest
ĠTut
irrel
Ġschizophrenia
Ġmisogyn
healthy
Iron
Ġreacted
-$
252
Ġplural
Ġplum
Ġbargain
Ġgrounded
finder
Ġdisse
ĠLaz
OOD
Ġatroc
Factory
Ġminions
Ġori
ĠBrave
ĠPRE
ĠMyanmar
ĠHod
Ġexpedition
Ġexplode
ĠCoord
Ġextr
ĠBrief
ĠADHD
Ġhardcore
feeding
Ġdile
ĠFruit
Ġvaccination
ĠMao
osphere
Ġcontests
-|
Ġfren
isphere
Rom
ĠSharp
ĠTrend
Ġdisconnect
âĢ¢âĢ¢
Ġpersecution
Earth
Ġhealthier
384
Ġcob
ĠTrinity
OWS
ANN
Ġspecialty
Ġgru
Ġcooperative
why
Starting
ĠIssues
stre
ensor
Ġ185
Adv
!?
ĠRevel
emia
ĠHulk
Ġcelebrations
ĠSou
raud
ĠKlein
Ġunreal
context
Ġpartnerships
Ġadopting
tical
Ġsplash
ĠHezbollah
category
cyclop
xton
ĠDot
urdy
tz
Ġenvelope
ĠNL
âķ
Ġwherein
Spec
184
Ġtelev
aliation
Ġmyths
å°
Ġrigorous
Ġcommunicating
Ġobserver
Ġrehe
ĠWash
Ġapologized
ĠTin
Ġexpenditures
workers
document
Ġhesitate
ĠLenin
Ġunpredictable
Ġrenewal
cler
okia
ĠCONT
Ġpostseason
Tokens
Ġexacerb
Ġbetting
Ġ147
Ġelevation
Wood
ĠSolomon
194
004
output
Ġredund
ĠMumbai
ĠpH
Ġreproduce
ĠDuration
MAX
Ġbog
CBS
ĠBalance
ĠSgt
ĠRecent
Ġcd
Ġpopped
Ġincompet
prop
ayan
guy
Pacific
Ġtyr
Ġ{{
ĠMystic
ĠDana
Ġmasturb
Ġgeometry
Ã¢
ĠCorrect
Ġtrajectory
Ġdistracted
Ġfoo
ĠWelsh
Luc
mith
Ġrugby
Ġrespiratory
Ġtriangle
Ġ215
Ġundergraduate
ĠSuperior
changing
_-
Ġrightly
Ġreferee
Ġlucrative
Ġunauthorized
Ġresembles
ĠGNU
ĠDerby
Ġpathways
ĠLed
Ġendurance
Ġstint
Ġcollector
Fast
Ġdots
Ġnationals
ĠSecurities
Ġwhip
Param
Ġlearns
Magic
Ġdetailing
moon
Ġbroadcasting
Ġbaked
265
holm
ĠSah
ĠHussein
ĠCourtesy
174
Ġ146
Ġgeographic
peace
Ġjudging
ĠStern
Bur
Ġstoryline
Gun
ĠStick
245
307
ãĤ´ãĥ³
ĠAdministrator
Ġburnt
Ġpave
choes
Exec
Ġcampuses
Result
Ġmutations
ĠCharter
Ġcaptures
Ġcompares
Ġbadge
Scient
Ġerad
iery
oi
ettes
ĠEstate
Ġstrap
Ġproudly
Ġfried
Ġwithdrawn
ĠVoy
phony
Items
ĠPierce
bard
Ġannotation
anton
illon
Impro
...)
Ġhappier
------
adjust
Ġstaffers
Ġactivism
Ġperf
Ġalright
Need
Ġcommence
Ġopioid
ĠAmanda
Es
ĠPars
ĠKaw
Works
248
Ġindo
tc
endant
ĠMoto
Ġlegalization
OTE
Ġtasked
Ġtsp
ĠACTIONS
166
Ġrefreshing
ĠNR
ĠPerez
Ġinfringement
SY
Listen
inning
ku
Ġrotate
program
arah
Design
Ġ(Â£
Ġstoring
Ġwarrants
Ġjudgement
ĠBrist
usually
photo
ĠRan
ĠPine
Ġoutrageous
ĠValentine
luence
ĠEverybody
Altern
Ġrelevance
Ġterminated
Ġdessert
Ġfulfilled
Ġprosecuted
ĠWords
Ġmigrant
Ġcultivation
ÃĥÃĤÃĥÃĤÃĥÃĤÃĥÃĤÃĥÃĤÃĥÃĤÃĥÃĤÃĥÃĤÃĥÃĤÃĥÃĤÃĥÃĤÃĥÃĤÃĥÃĤÃĥÃĤÃĥÃĤÃĥÃĤ
idelity
ĠVern
ĠLogin
Ġmetaphor
ĠTip
Ġrecruits
ĠPig
ribing
Ġenthusiasts
exper
Ġfrightening
ĠHair
anson
strate
Ġhi
Height
Ġowning
none
Ġdislike
Ġknives
pherd
Ġloudly
ĠAPIs
Display
ĠLac
ĠUSS
abl
verages
Jew
Ġ172
ĠHistorical
atoon
ĠPhysics
intern
Ġwarmth
Ġtopp
DM
Ġgunman
Ġemperor
odi
ãĥ£
inatory
ĠRib
Ġ131
ĠSaturn
ĠShining
Ġwaking
Quotes
Ġcomedian
enberg
Â½
Ġbelievers
Ġpaperwork
custom
Ġlev
Ġlament
Ġpouring
222
political
ĠSupplement
maid
Ġcruelty
Ġtread
ysics
Aw
rites
Ġmodifier
ĠPosition
Adam
lb
ubs
Ġimperfect
Ġclusters
ĠEngineer
ĠCherry
Ġinauguration
ĠSau
Ġembodiment
ĠUncle
Ġoverr
Ġexplosions
cule
ĠPrinceton
ĠAndrea
Ġincorrectly
Ġearnest
Ġpilgr
ĠSprint
Ġsleeve
Ġhears
ĠAmazing
Ġbrowsing
agin
Ġhomeland
Ġhaw
Ġdiving
istered
178
Ġbargaining
ĠArcade
Ġdelegate
terson
................................................................
ĠJacksonville
275
Ġstagn
Ġadam
ĠSherman
CB
Ġsuburb
ĠFoods
Ġconverting
ĠArist
Ġchambers
love
Ġamino
ĠGan
Ġmadness
mc
ĠUSE
defined
Ġultr
indust
Ġwolves
lance
Additionally
Ġcracks
asia
ĠReason
ĠPump
Ġaccidental
ĠLaser
ĠRid
Ġinitialized
elli
Ġunnamed
Ġnoun
ĠPassed
Ġhostage
ĠEthiop
shirts
Ġunrel
ĠEmbassy
Ġ1941
Ġatoms
Ġpurported
164
ĠFi
Ġgallons
ĠMonica
Ġpg
enment
Ġsorted
ĠGospel
Ġheights
Ġtraced
Ġundergoing
Shell
Ġsacks
Ġproportions
Ġhalluc
Font
acet
Ġwarmer
ĠINTER
Ġgrabbing
Plug
Ġrealization
ĠBurke
Ġenchant
ATER
ĠSeed
Ġabundant
FM
Ġcivic
Vs
isi
Ġvow
Ġreper
ĠPartnership
Ġpenetration
Ġaxe
Ġshattered
ĠZombies
Ġvinyl
ĠAlert
eon
Ġobliged
ĠIllust
ĠPlaza
ĠFrontier
Ġdavidjl
ĠSerial
ĠHav
ĠNutrition
Bi
ĠâĸĪ
ĠJays
linux
Ġhurry
Ġvoy
Ġhopeless
ĠStealth
Ġãģ
essors
ttle
borg
ĠSafari
fell
Ġwary
due
ĠAbove
Ha
ELL
Ġnotor
ĠWon
Too
Ġoccupations
Ġpossessions
Ġinviting
Ġpredators
Ġaccelerated
Ġ157
uterte
ĠCube
east
account
Give
Ġtransplant
redients
idable
Ġscreenshots
ĠGund
ĠFS
Ġtravelers
Ġsensory
ĠFiat
ĠRockets
İĭ
_{
Friend
Ġcharming
ALS
Ġenjoyment
mph
Ġ5000
ĠREG
ÙĨ
bia
Ġcompilation
rost
ĠVP
ĠSchne
2019
Ġcopying
MORE
ĠFlore
falls
215
total
Ġdisciples
double
Ġexceeding
Ġsmashed
Ġconceptual
ĠRomania
ĠBrent
ĠICE
ĠTou
Ġgrap
Ġnails
189
ãĥĺ
Ġprocure
eur
Ġconfirming
ĠCec
awi
ĠEden
Ġng
Ġengineered
atics
Ġhooked
Ġdisgusting
ĠMurder
ãĤ¿
Library
Ġ168
Almost
hematic
Menu
ĠNotre
ĠJur
Ġkidnapped
Ġhacker
ĠJade
Ġcreepy
Ġdrawings
ĠSponsor
Ġcyclists
ĠGoblin
Ġoptimized
Ġstaged
ĠMcD
between
Age
eno
Sex
ĠWide
nings
avis
Ġincapable
ĠKob
Ġrewarding
ĠLone
olescent
Ġcontracted
Ġsticky
Jose
Ball
fest
ĠInput
ĠRecently
Ġtomat
square
Application
Ġnitrogen
Ġduplicate
ĠRecon
ĠDear
London
Ġintra
Ġdock
Ġoutreach
ĠMillion
Ġmammals
ampton
VAL
Ġsnaps
Ġdos
ĠWhole
ĠReady
Try
ĠWinnipeg
earance
Ġincurred
renched
ĠNSW
ilot
raine
Ġcube
got
Ġrunway
etermined
ĠHawks
Ġsurvivor
ĠWish
ĠDin
ĠDEF
ĠVault
187
Ġmushrooms
Ġcrisp
bey
ĠDiscovery
Ġdevelopmental
Ġparadigm
Ġchaotic
ĠTsu
Ġ333
bons
Ġbacterial
Ġcommits
Ġcosmic
Ġmega
ocative
ĠPaint
ophobic
Ġvain
Ġcarved
ĠThief
ĠGul
owship
Ġcites
ĠEdinburgh
Ġdiminished
Ġacknowledges
ĠKills
Ġmicrow
ĠHera
Ġseniors
Ġwhereby
Hop
atron
Ġunavailable
ĠNate
Ġ480
Ġslated
ĠRebecca
ĠBattery
Ġgrammar
Ġheadset
Ġcursor
Ġexcluding
anye
aundering
ebin
Ġfeasible
ĠPublishing
ĠLabs
ĠCliff
ĠFerrari
Ġpac
visible
marked
pell
Ġpolite
Ġstaggering
ĠGalactic
Ġsuperst
Ġparan
ĠOfficers
ãĢģ
Ġspecifics
ulus
239
ĠPaste
AMP
ĠPanama
ĠDelete
anguard
restrial
Ġheroic
ĠDy
Ø§ÙĦ
Ġincumbent
Ġcrunch
tro
Ġscoop
Ġblogger
Ġsellers
uren
Ġmedicines
ĠCaps
ĠAnimation
oxy
Ġoutward
Ġinquiries
229
Ġpsychologist
ĠSask
evil
Ġcontaminated
ãĤ¨
herence
Ġbranded
ĠAbdul
zh
Ġparagraphs
Ġmins
Ġcorrelated
erb
Ġimpart
Ġmilestone
ĠSolutions
otle
Ġundercover
Ġmarched
ĠChargers
fax
ĠSecrets
Ġruth
weather
Ġfeminine
Ġsham
Ġprestigious
iggins
Ġsung
history
ettle
ggie
Ġoutdated
oland
Ġperceptions
ĠSession
ĠDodgers
uj
ĠEND
Doc
Ġdeficiency
Grand
ĠJoker
Ġretrospect
Ġdiagnostic
Ġharmless
Ġrogue
ĠAval
Equ
Ġtransc
ĠRobertson
ĠDepending
ĠBurns
ivo
Ġhostility
Features
ĵĺ
Ġdiscomfort
ĠLCD
specified
ĠExpect
340
Ġimperative
ĠRegular
Chinese
Ġstatewide
Ġsymm
Ġloops
Ġautumn
Nick
Ġshaping
Ġquot
Ġcherry
ĠCrossref
è¦ļéĨĴ
Standard
heed
ĠDell
ĠVietnamese
Ġost
ĠValkyrie
OA
Assad
Ġrebound
ĠTraffic
places
æĺ
ĠBuc
172
Ġshelters
Ġinsisting
ĠCertainly
ĠKenneth
ĠTCP
Ġpenal
ĠReplay
heard
Ġdialect
iza
ĠFY
itcher
ĠDL
Ġspiral
Ġquarterbacks
Ġhull
Ġgoogle
Ġtodd
ĠSterling
ĠPlate
Ġspying
mbol
ĠRealm
ĠProced
ĠCrash
Ġterminate
Ġprotesting
Center
guided
Ġuncover
Ġboycott
Ġrealizes
sound
Ġpretending
ĠVas
1980
Ġframed
Ġ139
Ġdescended
Ġrehabilitation
Ġborrowing
ĠBuch
Ġblur
Ron
ĠFrozen
enza
Chief
ĠPoor
Ġtranslates
MIN
Ġ212
JECT
Ġerupted
Ġsuccesses
SEC
Ġplague
Ġgems
doms
Ġstretches
ĠSpy
Ġstorytelling
Credit
ĠPush
Ġtraction
Ġineffective
ĠLuna
Ġtapes
Ġanalytics
ercise
Ġprogrammes
ĠCarbon
Ġbehold
heavy
ĠConservation
ĠFIR
Ġsack
termin
ricks
Ġhoused
Ġunusually
Ice
Ġexecuting
ĠMoroc
eday
Ġeditions
Ġsmarter
ĠBA
Ġoutlaw
Ġvanished
iba
ALSE
ĠSilva
238
Could
Ġphilosopher
Ġevacuated
Secret
142
Ġvisas
ãĤ¬
ĠMalt
ĠClearly
ĠNiger
ĠCairo
ĠFist
380
ĠXML
auto
itant
Ġreinforced
Record
ĠSurvivor
GHz
Ġscrews
parents
Ġoceans
mares
Ġbrakes
vasive
Ġhello
ĠSIM
rimp
Ġore
ĠArmour
247
Ġterrific
Ġtones
141
ĠMinutes
Episode
Ġcurves
Ġinflammatory
Ġbatting
ĠBeautiful
Lay
Ġunpop
vable
Ġriots
ĠTactics
baugh
ĠCock
Ġorgasm
ĠSas
Ġconstructor
etz
Gov
Ġantagon
Ġtheat
Ġdeeds
hao
cuts
ĠMcCl
Ġum
ĠScientists
Ġgrassroots
yssey
"]=>
Ġsurfaced
Ġshades
Ġneighbours
Ġadvertis
oya
Ġmerged
Upon
Ġgad
Ġanticipate
Anyway
Ġslogan
Ġdisrespect
Iran
ĠTB
acted
Ġsubpoen
mediately
OOOO
Ġwaiver
Ġvulnerabilities
ottesville
ĠHuffington
Josh
ĠDH
Monday
ĠEllen
Know
xon
items
228
Ġfills
ĠNike
Ġcumulative
andals
Ir
Ġì
Ġfriction
igator
Ġscans
ĠVienna
ldom
Ġperformers
Prim
Ġbidding
Mur
Ġleaned
ĠPrix
alks
Ġ[âĢ¦]
ĠTwitch
ĠDeveloper
ĠGir
Ġcallback
Abstract
Ġaccustomed
Ġfreedoms
ĠPG
uracy
Ġlump
isman
,,,,
1992
ĠRED
Ġworm
Match
ĠPlatinum
IJ
ĠOwner
Trivia
compl
Ġnewborn
Ġfantas
Own
Ġ1959
Ġsympath
Ġubiqu
Ġoutputs
Ġallev
Ġprag
Kevin
Ġfavors
Ġburial
Ġnurt
solete
cache
Ġ156
Ġunlocks
techn
Making
Ġconquer
adic
æĸ
Ġelf
Ġelectorate
ĠKurds
ĠStack
ĠSamurai
Ġâĺħ
Ġ{}
ĠSaid
ĠFallout
Ġkindness
ĠCustoms
ĠBoulevard
Ġhelicopters
otics
ĠVeget
comment
Ġcriticised
Ġpolished
ĠRemix
ĠCultural
Ġrecons
Ġdoi
atem
Screen
Ġbarred
Comments
ĠGenerally
Ġslap
720
Vari
pine
Ġempt
Ġhats
ĠPlaying
lab
average
forms
ĠCotton
Ġcans
ĠDON
ĠSomalia
Crypt
ĠIncreases
Ever
modern
Ġsurgeon
3000
Ġrandomized
================================================================
Bern
impl
ĠCOR
Ġproclaim
thouse
Ġtoes
Ġample
Ġpreserving
Ġdisbel
grand
Besides
Ġsilk
ĠPattern
hm
Ġenterprises
Ġaffidavit
ĠAdvisory
Ġadvertised
ĠReligious
sections
psych
ĠFields
aways
Ġhashtag
ĠNightmare
Ġvampire
Ġforensic
rossover
nar
Ġnavy
Ġvacant
ĠDuel
Ġhallway
Ġfacebook
identally
ĠNRA
Ġmatt
Ġhurricane
ĠKirby
ĠPuzzle
Ġskirt
oust
dullah
Ġanalogy
inion
Ġtomatoes
ĠNV
ĠPeak
ĠMeyer
Ġappointments
Ġmasc
Ġalley
rehend
Ġcharities
Ġundo
Ġdestinations
ĠTesting
"></
Ġdestined
Ġimplements
ĠHarold
RECT
Ġoptimization
Ġkilometres
Ġcmd
Ġimpairment
Ġunsuccessful
Ġswiftly
ĠGlasgow
arten
ĠShares
ĠAnswer
ĠAlbum
Ġnutritional
ãĥĸ
ĠFut
Ġbloc
ĠNFC
Ġwholesale
ĠCW
Ġneglected
Ġlauncher
Ġannouncements
OULD
comb
Ġrotating
Ġrests
ĠTicket
chedel
Lou
ĠVic
Ġ"'
Ġtemplates
Ġreplaces
Arc
::::
ĠGilbert
Ġillnesses
Ġschedules
Ġheterosexual
LINE
Ġherein
Ġcoerc
Ġdecreasing
Ġdeportation
sudo
ĠIndigenous
Ġweighs
Along
');
ĠBengals
707
Ġjoints
verts
Ġ149
naire
Ġsimplest
Ġlore
1080
fiction
ĠDatabase
Ġreservation
Ġsou
Ġsanctuary
audio
aple
Ġvegetarian
Ġanticipation
micro
Ġenduring
Ġdeparted
Ġsidewalk
Ġprohibits
ĠFont
Ġcompute
ĠSect
Ġ158
Battle
Ġbomber
Ġdistraction
Ġendured
Ġpractitioners
Ġdisturbed
Ġdrank
ordered
Ġsurprises
seat
Security
ĠWisdom
ogo
Ġsubparagraph
ĠPeninsula
ĠOrigins
iren
ĠPav
iggle
Ġgratitude
ĠGravity
overty
iman
ctr
ĠCaesar
could
gem
Ġskies
Ġchamp
Ġagreeing
Family
Div
176
Ġmessy
umption
Federal
erno
ĠChat
Beyond
Ġdevote
ĠWalsh
Ġdumped
Ġaccumulation
stad
hibition
Ġsmokers
Ġinspector
French
issan
ĠVita
Ġresearching
RAM
ĠCeltics
Ġcloak
ĠTerra
Mary
sold
ĠDOM
mods
Intel
Ġmultitude
ĠImproved
Ġreliance
Ġartifact
Ġalarming
Prom
hon
TION
medium
Ġreflex
ĠExcel
Ġweakened
163
224
Ġcostumes
Ġuniquely
Ġsorrow
Ġmansion
wp
Ġsalv
ĠGrove
bsp
ĠSniper
ĠShipping
ĠPOW
Ġundis
Ġbranding
Girl
ĠAhmad
ĠLakes
ĠCorey
Ġinheritance
enery
Ġpacking
ĠPrest
Dest
FW
Ġregulator
locked
Ġcontested
ĠMelissa
ĠDuc
Ġunpopular
Ġstacked
Ġ1917
Ġyearly
Ġstare
Ġassessing
Ã¸
Ġbeverages
Ġcompetitions
Ġstrengthening
along
ĠLud
Ġmelted
stanbul
Ġbounty
ENC
ĠLands
Ġdeclares
Ġcustomize
Ġcomposite
ãĥ¬
CM
ographics
ĠTemp
Ġcontender
Ġinsign
ĠLAN
Ġdisasters
inspired
Ġjudgments
ustainable
ursion
Ġvariance
ĠUltimately
Ġ--------
uador
ĠRX
Ġmelting
ĠExtended
ĠTwe
Major
ĠBil
Ġsyrup
quick
ĠHolder
Ġinnocence
ULE
ĠMight
9999
Ġfal
Ġcontinuity
Ġ1953
ĠBS
still
Lat
ĠAbuse
Ġunsupported
xxxxxxxx
Ġinstitute
Ġfragment
ĠPep
Western
ĠCause
ĠFrag
ĠArs
à¥
astics
Ġbishop
Ġcrosses
Ġ154
ĠUpgrade
Ġmitigate
ĠRaymond
Mods
Ġtomato
Ġstumbled
Ġdiffers
Initial
ĠRaspberry
Ġignores
Ġtant
Ãł
Ġrelay
Ġbisexual
Ġconfession
Ġdement
inas
ĠHeather
platform
driving
bourg
ĠMush
Ġhyster
Details
Ġdrift
ĠWald
ĠLuckily
orf
Ġexpire
ĠPunch
zyme
gold
Ġunpaid
ĠTrent
Ġunarmed
Ġillicit
ĠTottenham
Ġsmash
International
inker
Ġsting
ĠSaddam
ĠART
Ġtruths
birth
Ġsober
ĠNit
Ġib
Ġusable
Ġstacks
ĠSylv
Ġnortheast
Ġdomination
ĠMour
ENSE
ĠMeasure
Ġprogrammer
Ġ<-
182
ĠCondition
Ġbackyard
irling
ĠJeb
ĠCreed
ĠHang
ĠCOMP
FER
ĠIsh
Ġdetectives
---------------
ĠMessenger
Ġlooph
Ġgateway
151
ĠMaterials
ĠDT
Ġdoomed
odo
Ġslices
Ġemailed
ĠPerl
Ġrenov
UTH
odynam
ĠSouthwest
getic
ĠTPP
Ġoptimism
ĠTow
ulators
protected
yles
Â«
Ġexile
env
Prop
ĠZimmerman
Ùİ
Ca
omaly
ãĥĨ
Ġrailroad
Lee
232
Ġreplicate
Ġcomfortably
actly
Ġrav
Ġtelescope
Ġhonesty
ĠPepper
ĠBring
Ġrichest
Ġoutdoors
Ġhalls
Ġcontend
ISE
Ġsubmitting
Ġnaive
arations
Ġ143
Ġpoised
responsible
Ġsocks
ĠSkull
Question
Ġdiscoveries
Joined
ĠEnemies
ĠWireless
ĠRevenge
Ġpuzzles
Ġceased
290
criptions
ĠConsole
Ġboiling
Ġdiscrep
Ġdeduction
Ġarsenal
XXXX
ĠAmsterdam
roximately
ĠShane
Ġposing
ĠACLU
ĠCompanies
Ġtheology
ĠUg
quarter
ĠHank
Coin
ĠLv
Ġallegation
ĠAvoid
Ġindefinitely
Ġcommodities
Ġbrig
ĠManit
Ġtenth
method
ĠKnicks
ĠâĢİ
Ġinvoked
Dial
ARA
Ġcaucus
227
ĠJab
Ġounces
bay
Ġbuddy
fan
234
ĠHil
adh
ĠTY
ĠIND
Ġ1939
Ġiteration
ĠGonzalez
ĠVert
ĠIO
emb
rera
ench
ĠRequirements
ĠWins
Ġlivestock
hours
"âĢ¦
bral
Marg
ĠDone
Ġwasting
inged
groups
Ġwishing
ĠTumblr
Ġtapping
Ġnationalism
ĠByr
Ġsquares
ĠActions
ãĥ¥
Inside
debug
Ġappend
Ġstubborn
ĠCind
Tell
Ġtearing
ĠRey
orc
ĠDayton
ĠNH
ĠMadness
Charl
ĠMorrison
filter
Ġaccuse
Ġ./
Ġtorrent
Ġdeclines
gallery
Mine
Ġnegotiation
ĠBashar
opia
1993
emort
ĠNovel
ĠFang
ersive
ĠInstant
Ġroller
Around
ĠElections
Games
Ġinexpensive
Ġwors
Ġvul
ĠHole
Ġunbelievable
Ġnause
Ġentr
boat
ĠSTE
Ġbush
ĠHassan
Ġwo
Ġpaused
ĠMig
lived
Ġscout
Ġlith
Published
duino
cool
Ġcirculating
idas
ĠPam
violent
ĠCrawford
uddle
ĠLetters
Guard
morph
Ġwandering
Ġsophomore
Ġqueer
ĠBlind
rue
ĠMarriage
Dom
Ġpadding
Ġfolders
Ġmeaningless
Ġcandidacy
afort
Ġwhistlebl
ĠIdentified
Ġcigar
Ġhid
ĠDubai
Ġposture
Ġhiking
ĠTerminal
Legendary
ĠTP
ĠATK
ĠStarbucks
ĠRiot
1991
ĠBottom
effic
ĠEugene
ĠWyoming
ĠRocky
Ġsalmon
Ġmetro
Ġbilateral
Ġcelebrates
Length
billion
Bat
Ġreleg
Ġpseudo
DT
ĠRhode
Parent
pletion
Ġattribut
Ġtuning
ĠNOTE
ĠRebel
icus
Fund
Ġcocktail
Ġ501
Ġspoon
Ġbrutality
Ġunite
Ġmicrobi
ĠReich
positive
Ġamazed
ĠNT
Desc
ECTION
Ġfalsely
ĠHighlander
ĠCrist
ĠVictorian
Ġdistributions
their
ĠEinstein
Ġpod
Ġepidem
Ġheap
ĠRanch
Ġanthem
Ġreapp
ĠAuburn
Ġconcurrent
ĠThroughout
ĠPOST
âĺ
Ġhomemade
kick
Beg
Ġchassis
counter
Ġmerger
Ġlaps
217
union
ĠTrigger
Ġdebated
Ġsilently
Ġrestraint
Bal
0000000
Ġformidable
ĠFilip
Ġsacrifices
Food
Ġdwarf
ĠSequ
inian
Moreover
Ġtangible
opsis
ĠMinecraft
ĠRegistration
oan
Ġrepresentations
Ġthirst
Ġcorp
irement
Made
loe
>"
cats
*.
Ġgestures
general
League
Ġpackets
ĠInspector
ĠBerg
Ġfraudulent
Ġcriticize
Fun
Ġblaming
ndra
Ġslash
ĠEston
Ġproposing
Ġwhales
Ġtherapist
Ġsubset
Ġleisure
ELD
ĠCVE
ĠActivity
Ġculmin
shop
ĠDAY
ischer
ĠAdmiral
ĠAttacks
Ġ1958
Ġmemoir
Ġfolded
Ġsexist
Ġ153
ĠLI
Ġreadings
Ġembarrassment
ĠEmployment
wart
chin
Ġcontinuation
lia
Recently
Ġduel
Ġevacuation
ĠKashmir
Ġdisposition
ĠRig
Ġbolts
Ġinsurers
467
Mex
Ġretaliation
Ġmisery
Ġunreasonable
raining
Imm
ĠPU
emer
Ġgenital
ãĤ³
ĠCandy
Ġonions
ĠPatt
liner
Ġconceded
Ġfa
Ġforc
ĠHernandez
ĠGeoff
debian
ĠTeams
Ġcries
Ġhomeowners
237
ABC
Ġstitch
Ġstatistic
Ġheaders
ĠBiology
Ġmotors
ĠGEN
ĠLip
Ġhates
Ġheel
Self
ipl
EDIT
orting
Ġannot
ĠSpeech
oldemort
ĠJavascript
ĠLeBron
Ġfootprint
Ġfn
Ġseizures
nas
hide
Ġ1954
ĠBee
ĠDeclaration
ĠKatie
Ġreservations
NR
female
Ġsaturated
Ġbiblical
Ġtrolls
Device
photos
Ġdrums
ãĥīãĥ©ãĤ´ãĥ³
Night
fighter
ĠHak
riber
Ġcush
Ġdisciplinary
baum
ĠGH
ĠSchmidt
ilibrium
Ġsixty
ĠKushner
rots
Ġpund
ĠRac
Ġsprings
Ġconve
Business
Fall
Ġqualifications
Ġverses
Ġnarciss
ĠKoh
ĠWow
ĠCharlottesville
edo
Ġinterrogation
ĠWool
365
Brian
Ġâľĵ
Ġalleges
onds
idation
ĠJackie
yu
Ġlakes
Ġworthwhile
Ġcrystals
ĠJuda
Ġcomprehend
Ġflush
Ġabsorption
ĠOC
Ġfrightened
ĠChocolate
Martin
Ġbuys
Ġbucks
Ġappell
ĠChampionships
Ġlistener
ĠDefensive
Ġcz
uds
ĠMate
Ġreplay
Ġdecorated
Ġsunk
ĠVIP
ĠAnk
Ġ195
aaaa
Nobody
ĠMilk
ĠGur
ĠMk
ĠSara
Ġseating
ĠWid
Track
Ġemploys
Ġgigantic
APP
ãĤ§
inventory
Ġtowel
atche
lasting
ĠTL
Ġlatency
Ġkne
Ber
meaning
Ġupheld
Ġplayground
Ġmant
Side
Ġstereo
Ġnorthwest
Ġexceptionally
Ġrays
Ġrecurring
Drive
Ġupright
Ġabduct
ĠMarathon
Ġgoodbye
Ġalphabet
hp
Ġcourtroom
rington
othing
Tag
Ġdiplomats
Ġbarbar
ĠAqua
183
3333
Ġmaturity
Ġinstability
ĠApache
Ġ===
Ġfasting
ĠGrid
ModLoader
Ġ152
Abs
ĠOperating
etti
Ġacquaint
Donnell
ĠKem
ĠForge
Ġarmored
Mil
Ġphilosophers
invest
Players
âĪ
Ġmyriad
Ġcomrades
Rot
Ġremembering
Ġcorresponds
Ġprogrammers
ĠLynn
Ġolig
Ġcoherent
ynchron
ĠChemical
Ġjugg
pair
posts
Eye
ĠInner
Ġsemester
ottest
ĠEmirates
ricanes
orously
mits
ĠWis
Ġdodge
location
Ġfaded
Amazon
ĠProceed
ĠINFO
journal
ĠTruck
Ten
Ġ217
Ġstatutes
mobile
ĠTypes
Recomm
buster
pex
Ġlegends
Ġheadache
faced
ĠWiFi
ifty
ĠHER
Ġcircuits
ERROR
226
olin
Ġcylinder
ospace
ikers
Prem
Quant
Ġconflicting
Ġslightest
Ġforged
ionage
Stephen
ĠKub
ĠOpportun
ĠHeal
Ġblo
Ġrulers
Ġhuh
Ġsubmarine
fy
asser
Ġallowance
ĠKasich
ĠTas
ĠAustralians
ForgeModLoader
ĠâĨĳ
ĠMatrix
amins
Ġ1200
ĠAcqu
236
Document
ĠBreaking
193
ĠSubst
ĠRoller
ĠProperties
ĠNI
tier
Ġcrushing
Ġadvocating
Furthermore
keepers
Ġsexism
xd
Ġcaller
ĠSense
chieve
ĠTF
Ġfueled
Ġreminiscent
Ġobsess
urst
Ġuphold
ĠFans
hetics
ĠâĹ
ĠBath
Ġbeverage
Ġoscill
254
Ġpoles
Ġgradual
Ġexting
ĠSuff
ĠSuddenly
Ġliking
Ġ1949
unciation
amination
ĠOmar
ĠLV
ĠConsequently
Ġsynthes
ĠGIF
Ġpains
Ġinteracting
uously
incre
Ġrumor
ĠScientology
197
ĠZig
Ġspelling
ĠASS
Ġextingu
mson
Ġgh
Ġremarked
ĠStrategic
ĠMON
å¥
gae
ĠWHAT
Eric
ĠCampus
Ġmethane
Ġimagin
JUST
ĠAlm
XT
iq
ĠRSS
Ġwrongdoing
atta
Ġbigot
Ġdemonstrators
ĠCalvin
ĠVilla
Ġmembrane
ĠAwesome
Ġbenefic
268
Ġmagnificent
ĠLots
Greg
ĠBoris
Ġdetainees
ĠHerman
Ġwhispered
Ġawe
Professor
funding
Ġphysiological
ĠDestruction
Ġlimb
Ġmanipulated
Ġbubbles
Ġpseud
Ġhydra
ĠBristol
Ġstellar
ĠExpansion
ĠKell
ĠInterestingly
Ġmans
Ġdragging
Ġecological
ĠFit
Ġgent
Ġbenefited
ĠHaiti
Ġpolyg
ãĥİ
Ġ2030
Ġprow
Ġreconstruction
Ġwast
Ġpsychic
ĠGreeks
Handler
162
ĠPulse
Ġsolicit
Ġsys
Ġinflux
ĠGentle
percent
Ġproliferation
Ġtaxable
Ġdisregard
Ġescaping
Ġginger
Ġwithstand
Ġdevastated
ĠDew
series
Ġinjected
elaide
Ġturnover
heat
ĻĤ
Happy
ĠSilent
ãĤŃ
ivism
Ġirrational
AMA
Ġreef
rub
Ġ162
Ġbankers
ĠEthics
vv
Ġcriticisms
Kn
186
Movie
ĠTories
Ġnood
Ġdistortion
False
odore
Ġtasty
Research
ĠUID
-)
Ġdivorced
ĠMU
ĠHayes
ĠIsn
iani
ĠHQ
Ġ"#
ignant
Ġtraumatic
ĠLing
Hun
Ġsabot
online
random
Ġrenamed
rared
KA
dead
Ã©t
ĠAssistance
Ġseaf
++++++++
Ġseldom
ĠWebb
Ġboolean
ulet
Ġrefrain
ĠDIY
rule
Ġshutting
Ġutilizing
loading
ĠParam
coal
ooter
Ġattracting
ĠDol
Ġhers
agnetic
ĠReach
imo
Ġdiscarded
ĠPip
015
Ã¼r
Ġmug
Imagine
COL
Ġcursed
ĠShows
ĠCurtis
ĠSachs
speaking
ĠVista
ĠFramework
ongo
Ġsubreddit
Ġcrus
ĠOval
Row
growing
Ġinstallment
Ġglac
ĠAdvance
ECK
ĠLGBTQ
LEY
Ġacet
Ġsuccessive
ĠNicole
Ġ1957
Quote
Ġcircumstance
ackets
Ġ142
ortium
Ġguessed
ĠFrame
Ġperpetrators
ĠAviation
ĠBench
Ġhandc
Ap
Ġ1956
259
rand
NetMessage
din
urtles
hig
ĠVIII
ffiti
ĠSwords
bial
Ġkidnapping
device
Ġbarn
ĠEli
aucas
Send
Constructed
ĠÂ½
Ġneedles
Ġadvertisements
Ġvou
Ġexhibited
ĠFortress
Ask
Berry
TYPE
Ġcancers
umping
ĠTerritory
Ġprud
Ġnas
Ġatheist
Ġbalances
ãģŁ
ĠShawn
&&
Ġlandsc
ĠRGB
Ġpetty
Ġexcellence
Ġtranslations
Ġparcel
ĠChev
East
ĠOutput
imi
Ġambient
ĠThreat
Ġvillains
Ġ550
ICA
Ġtaller
Ġleaking
cup
Ġpolish
Ġinfectious
ĠKC
Ġ@@
background
Ġbureaucracy
ĠSai
unless
itious
ĠSkype
Atl
IDENT
008
Ġhypocr
Ġpitchers
Ġguessing
ĠFINAL
Between
Ġvillagers
Ġ252
fashion
ĠTunis
Beh
ĠExc
ĠMID
288
ĠHaskell
196
ĠNOR
Ġspecs
Ġinvari
Ġglut
ĠCars
Ġimpulse
Ġhonors
gel
Ġjurisdictions
ĠBundle
ulas
California
ĠIncrease
Ġpear
Ġsingles
Ġcues
Ġunderwent
ĠWS
Ġexaggerated
Ġdubious
Ġflashing
LOG
)].
Journal
tg
Van
ĠIstanbul
ĠInsp
ĠFranken
Draw
Ġsadness
Ġironic
ĠFry
xc
Ġ164
isch
Way
ĠProtestant
horn
Ġunaff
ĠViv
illas
ĠProductions
ĠHogan
Ġperimeter
ĠSisters
Ġspontaneous
Ġdownside
Ġdescendants
Ġorn
worm
Japanese
Ġ1955
Ġ151
ĠDoing
elsen
umbles
Ġradically
ĠDrum
ĠBach
Ġliabilities
ĠOB
ĠElementary
Ġmeme
ynes
Ġfingerprint
ĠGrab
Ġundertake
Members
ĠReader
ĠSims
god
Ġhypothetical
scient
ĠAJ
Ġcharism
Ġadmissions
ĠMissile
trade
Ġexercising
ĠBackground
Written
Ġvocals
whether
Ġvi
ĠWinner
Ġlitter
ĠShooting
STEM
ãĤ¡
ĠAFL
Ġvariability
Ġeats
ĠDPS
brow
Ġelephants
Ġstrat
ĠÅ
Ġsettlers
Matthew
Ġinadvert
HI
ĠIMF
ĠGoal
Ġnerves
Johnson
eye
ablishment
Thursday
BILITY
Had
amoto
hetamine
eps
Ġmitochond
Ġcompressed
ĠTrevor
ĠAnimals
Tool
Lock
Ġtweak
Ġpinch
Ġcancellation
Pot
Ġfocal
ĠAstron
173
ĠASC
ĠOTHER
umni
Ġdemise
dl
Ùħ
Semitism
Ġcracking
Ġcollaborative
Ġexplores
sql
Ġherbs
Ġconfigurations
mis
ĠResult
acey
ĠSmoke
Ġsanct
elia
Ġdegener
Ġdeepest
Ġscreamed
Ġnap
Software
ĠSTAR
EF
ĠXin
sponsored
manship
233
Ġprimaries
Ġfiltering
Ġassemble
mil
ĠMyers
bows
Ġpunched
Mic
Ġinnovations
Ġfunc
ando
Ġfracking
ĠVul
Ð¾Ð
oshop
ĠImmun
Ġsettling
Ġadolescents
Ġrebuilding
Ġtransforming
Ġparole
Ġharbor
Ġbooking
otional
ongevity
ĠYo
bug
Ġemerges
ĠMethods
ĠChu
Pres
ĠDungeons
Ġtrailing
ĠRum
ĠHugh
å¤©
ĠEra
ĠBattles
Results
ĠTrading
Ġversa
css
axies
heet
Ġgreed
1989
Ġgardens
Ġcontingent
Park
ĠLeafs
hook
robe
Ġdiplomacy
ĠFuel
ĠInvasion
Ġupgrading
Male
Ġelic
Ġrelentless
ĠCovenant
apesh
ĠTrop
Ty
production
arty
Ġpunches
ako
cyclopedia
ĠRabbit
ĠHDMI
Ġ141
Ġfoil
ItemImage
ĠFG
Ġimplementations
ĠPom
ixtures
Ġawait
Ġ330
amus
Ġumbrella
Ġforesee
separ
Ġcircumcision
Ġperipheral
Say
ĠExpert
Inc
Ġwithdrew
ĠAnders
fried
Ġradioactive
ĠOpening
Ġboarding
ĠND
Ġoverthrow
Activ
WP
ĠActs
×Ļ
Ġmotions
vic
ĠMighty
ĠDefender
aer
Ġthankful
ĠKilling
ĠBris
moil
Ġpredicting
266
choice
Ġkillers
Ġincub
ĠChest
athering
Ġproclaimed
flower
ossom
umbledore
ĠCycling
ĠOccupy
AGES
Pen
ĠYug
Ġpackaged
Ġheightened
cot
stack
Cond
Ġstamps
mage
Ġpersuaded
Ġensl
ĠCardinal
Ġsolitary
Ġpossessing
ĠCork
Ġevid
ĠTay
Ġblues
Ġextremism
Ġlunar
Ġclown
Techn
Ġfestivals
ĠPvP
ĠLar
Ġconsequently
present
Ġsomeday
çİĭ
ĠMeteor
Ġtouring
culture
Ġbeaches
Ship
cause
ĠFlood
ãĥ¯
Ġpurity
those
Ġemission
bolt
Ġchord
ĠScripture
Lu
Ġ${
created
Others
258
Ġelemental
Ġannoyed
ĠAE
dan
ĠSag
Researchers
Ġfairy
âĢĵâĢĵ
============
Smart
GGGG
Ġskeletons
Ġpupils
linked
Ġurgency
enabled
ĠFuck
Ġcouncill
rab
UAL
TI
Ġlifes
Ġconfessed
Bug
Ġharmon
ĠCONFIG
ĠNeutral
Double
Ġstaple
ĠSHA
British
ĠSNP
ATOR
oco
Ġswinging
gex
oleon
plain
ĠMissing
ĠTrophy
vari
ranch
Ġ301
440
0000000000000000
Ġrestoring
Ġhaul
ucing
nerg
Ġfutures
Ġstrategist
question
Ġlateral
ĠBard
Ġsor
ĠRhodes
ĠDowntown
?????-
ĠLit
ĠBened
Ġcoil
street
ĠPortal
FILE
ĠGru
*,
231
neum
Ġsucked
Ġrapper
Ġtendencies
ĠLauren
cellaneous
267
Ġbrowse
Ġoverc
header
oise
Ġbeet
ĠGle
Stay
Ġmum
Ġtyped
Ġdiscounts
Talk
ĠOg
existing
ĠSell
uph
CI
ĠAustrian
ĠWarm
Ġdismissal
Ġaverages
camera
Ġallegiance
LAN
="#
Ġcommentators
ĠSetting
ĠMidwest
Ġpharmac
ĠEXP
Ġstainless
Chicago
Ġtan
244
Ġcountryside
ĠVac
295
Ġpinned
Ġcrises
Ġstandardized
Task
ĠJail
ĠDocker
colored
forth
"},
Ġpatrons
Ġspice
Ġmourn
ĠMood
Ġlaundry
Ġequip
ĠMole
yll
ĠTHC
nation
ĠSherlock
Ġissu
ĠKre
ĠAmericas
ĠAAA
Ġsystematically
Ġcontra
ĠSally
Ġrationale
Ġcarriage
Ġpeaks
Ġcontradiction
ensation
ĠFailure
Ġprops
Ġnamespace
Ġcove
fields
ãĤĭ
Ġwool
ĠCatch
Ġpresumed
ĠDiana
ragon
igi
Ġhamm
Ġstunt
ĠGUI
ĠObservatory
ĠShore
Ġsmells
annah
Ġcockpit
ĠDuterte
850
Ġoppressed
breaker
ĠContribut
ĠPeru
ĠMonsanto
ĠAttempt
Ġcommanding
Ġfridge
ĠRin
ĠChess
uality
Ġol
Republican
ĠGlory
ĠWIN
.......
agent
reading
Ġinh
Jones
Ġclicks
alan
Ġ[];
ĠMajesty
ĠCed
opus
atel
Ãª
ARC
ĠEcuador
ãĥł
ĠKuro
Ġrituals
Ġcaptive
Ġounce
Ġdisagreement
Ġslog
fuel
Pet
Mail
Ġexercised
Ġsolic
Ġrainfall
Ġdevotion
ĠAssessment
Ġrobotic
options
ĠRP
ĠFamilies
ĠFlames
Ġassignments
007
akedown
Ġvocabulary
Reilly
Ġcaval
gars
Ġsuppressed
ĠSET
ĠJohns
Ġwarp
broken
Ġstatues
Ġadvocated
Ġ275
Ġperil
omorph
ĠFemin
perfect
Ġhatch
Lib
512
Ġlifelong
313
Ġcheeks
Ġnumbered
ĠMug
Body
ravel
Weight
ĠJak
ĠHeath
Ġkissing
ĠJUST
Ġwaving
upload
Ġinsider
ĠProgressive
ĠFilter
tta
ĠBeam
Ġviolently
ipation
Ġskepticism
Ġ1918
ĠAnnie
ĠSI
Ġgenetics
Ġonboard
atl
ĠFriedman
ĠBri
ceptive
Ġpirate
ĠReporter
278
Ġmythology
Ġeclipse
Ġskins
Ġglyph
ingham
Files
Cour
women
Ġregimes
Ġphotographed
Kat
ĠMAX
Officials
Ġunexpectedly
Ġimpressions
Front
;;;;;;;;
Ġsupremacy
Ġsang
Ġaggravated
Ġabruptly
ĠSector
Ġexcuses
Ġcosting
idepress
Stack
ĠRNA
obil
Ġghosts
ldon
atibility
Topics
Ġreimburse
ĠHM
ĠDeg
Ġthief
yet
ogenesis
leaning
ĠKol
ĠBasketball
Ġfi
ĠSeeing
Ġrecycling
Ġ[-
Congress
Ġlectures
Psy
Ġnep
Ġmaid
Ġoriented
AX
Ġrespectful
rene
flush
ĠUnloaded
request
grid
ĠAlternatively
ĠHugo
Ġdecree
ĠBuddhism
andum
Android
ĠCongo
ĠJoyce
Ġacknowledging
hesive
ĠTomorrow
ĠHiro
thren
ĠMaced
Ġhoax
ĠIncreased
ĠPradesh
Wild
______
161
Ġaunt
Ġdistributing
ĠTucker
ĠSSL
ĠWolves
Building
oult
ĠLuo
ĠYas
ĠSpir
ĠShape
ĠCambod
ĠIPv
Ġml
Ġextrad
390
ĠPenny
dream
Ġstationed
optional
eworthy
.</
Ġundertaking
Ġchickens
Ġstimuli
ĠElse
igators
ĠBeginning
ctory
Ġprepares
Ġdelta
Ġvicinity
tool
Ġworkshops
MHz
Ġaccusation
Ġhistories
ropolis
ĠChurchill
Ġneon
Ġbaff
dies
maybe
Ġè£ıè¦ļéĨĴ
Ġsymptom
ECH
ĠManuel
Ġbanana
ĠHB
Ġ****
ĠKoreans
coll
FB
Ġpraying
ĠCannot
ĠMile
Ġembracing
ĠSilk
393
oters
FD
Ġdaylight
alias
ĠBrigade
ĠHannah
Ġclergy
Ġsoutheast
Ġalcoholic
Ġproposes
livion
Ġcalculating
Ġstimulate
Ġsplitting
eight
ĠIndy
plays
ĠPik
Ġdomest
Ġforgiveness
ĠRings
patient
kinson
Mont
igible
;"
Ġperiodically
ammad
ĠBritt
pard
Ġarbitration
ĠSchneider
ĠCorporate
ĠMaya
Ġsnakes
aum
Ġblasted
Ġmysteries
Ġrevive
ocamp
ĠDodge
ĠOpera
279
Ġorphan
Ġspecifies
ĠMets
Duration
Hen
Ġfireworks
Ġprosecute
ĠTillerson
dp
usage
liness
ĠDebian
Ġ224
rises
ĠInfect
atra
ĠRR
ĠLor
diff
ĠCharleston
Ġacoustic
Ġamuse
330
Ġcer
ĠTac
Ġ[+
Ġcardiac
ĠRestaurant
ergy
Ġfuzz
Ġbites
Ġhazardous
Ġbrighter
rans
ĠStephanie
extra
RET
ĠChristine
ĠSue
statement
Ġbolster
Ġantit
Radio
BIT
ãĤ°
Ġvisions
ĠConcept
Ġinline
ĠPhilosophy
isans
ĠIrving
Ã£
taking
Ġinconsist
ĠKumar
Ġlig
ĠSchumer
ĠRegulations
ĠHz
thro
ĠVoldemort
ĠMED
ĠFrederick
Pad
221
Ġalleging
ĠCommunication
Ġ167
Ġforecasts
Ġspiders
Organ
ĠParticipants
ĠOps
design
Close
Ġfacto
Ġbombers
resistant
ategories
School
Ġhomework
Ġcorro
Tuesday
ĠBrendan
ĠMX
ĠTS
ĠStri
Ġstakeholders
ĠMillennium
Ġtransferring
Jud
Ġtac
Ġ1600
ĠSDK
rb
Ġinterpretations
ĠSG
Ġupstairs
ĠHarvest
Ġvagina
Ġingest
xf
ĠOrion
ĠJoey
Ġsandwic
Ġimmortal
Ġflipped
ortex
threatening
Ġsniper
Ġconverts
Ġinstallations
ĠBulgar
orsche
mails
Ġlure
Ġnarrowly
Ġgrenade
ĠGing
Ġunderwear
--------------
Ġchased
ĠVAL
Ġparenting
ĠHamb
ĠBlaz
Ġanarchist
ĠMedian
ĠPrograms
Î½
Ġobj
ĠNokia
orman
anqu
atism
opa
Ġfulfilling
Ġpuppy
Ġentit
ĠSebastian
Ġshooters
Ġricher
è¡
Ġtempted
ĠATT
ĠCV
Ġtore
Resource
ĠDevils
408
inational
Ġassurance
ĠDarren
Ġwhichever
posure
Ġfury
Stock
Ġuniversally
response
Ġoak
Ġworkload
ĠCorner
eele
"...
Ġdeprived
kowski
Ġcasts
Ġaffiliation
ĠAch
ĠAsked
athe
Ġlact
ĠThu
rm
Ġairlines
Ġnotions
Format
ĠFAA
ãĥĬ
driver
Ġtranscend
Settings
ĠProsecut
Ġspinal
Ġdefaults
FK
Ġprefers
rendered
thus
film
Ġtiger
ĠSpicer
recogn
ĠRugby
Network
Ġpity
Ġcompartment
casters
ĠMonroe
Ġ720
Ġcorrections
Ġdopamine
ĠAZ
Cut
Ġroomm
Ġspeculate
Hash
Ġrestrictive
1111
redible
onel
Ġrampant
reported
ĠSuite
ĠMinimum
alys
azard
loop
Ġlent
sha
Ġvandal
menu
ĠBoehner
Ġnarratives
Ġauthenticity
269
anic
duty
285
Ġthanked
Ġbetrayed
lift
Ġsouthwest
ĠDexter
ĠBod
Ġkeywords
Average
DIS
Ġethnicity
!),
ĠNationals
á¹
ĠTah
ioxid
Ġwidget
Ġpasta
Ġbilling
Ġtrilogy
ĠLines
Ġsniff
Ġnephew
Late
Ġprincip
ĠLoop
ĠMarxist
Ġdissolved
Ġcontexts
ĠAmount
ĠSpike
Ġtotals
Ġorganizer
Ġuprising
ships
YY
ĠNortheast
money
gradation
Ġgoalkeeper
ĠHear
Ġsteak
ĠBuzzFeed
Ġsolemn
ĠScand
Ġpopping
Ġadhere
ĠAlleg
byte
ĠWolver
Ġunin
Ġrecol
itud
Ġmimic
ibus
Ġpredicts
ĠKeeper
iating
Ġdeception
Ġlearnt
Ġdiary
Ġconditional
Ġrelic
Ġinvoke
ienced
åĪ
ĠPont
Ġcellphone
Ġspeeding
Ġtackling
Ġnude
opened
ĠManafort
Ġ1952
Ġmajors
ĠSilence
Ġlogistics
Ġweighted
ĠPsychiat
":["
Ġsickness
Ġdividends
zon
Release
ĠKeys
ĠIch
Ġenz
ĠFernand
ĠÎ±
Ġmeanings
Ġpenny
Ġstern
Ġlar
ĠPublished
Ġbackdrop
Kim
ĠSynt
Ġdebuted
wm
ĠIsle
Ġregulating
otti
ĠScholars
icester
ĠChef
Ġpops
ĠLauncher
ĠVarious
Ġcommenting
oslav
enzie
Ġrivalry
âĤ¬
Really
Ġorc
Ġbean
ĠJudy
Notice
ĠBike
?]
Ġrented
sten
Ġforefront
ĠBaldwin
Ġyielded
tails
Prime
ĠSources
icator
Sean
Ġmarching
Output
ĠJungle
Ġreside
zzle
ĠAndrews
Ġtorque
Basic
Actually
strap
penter
Ġexams
ĠYa
Ġ159
ĠDecision
Ġransom
eteenth
ensing
213
Ġsunset
404
ĠRapid
ĠHein
ĠAboriginal
Ġorganism
ĠSever
Ġcla
aji
Simple
ĠFlavor
ĠEval
prus
Ġchorus
DAY
Ġdenounced
Ġbiography
ĠTurnbull
Recent
Normal
lections
Word
Ġferry
ĠWagner
hom
Unit
Ġsupermarket
ĠSith
Ġnominees
Ġdictatorship
iddler
Ġannounces
ĠThem
ĠNeptune
Ġdeity
ĠYi
Ġmonarch
ARR
Ġinvaded
ĠHok
untary
Certain
ega
Ġkidding
ĠRegulation
Ġtray
Ġphotographers
ĠArcane
Ġdischarged
Ġevangelical
Ġinterchange
Ġfilmmaker
ĠEndless
Ġ290
ĠSalvador
ASY
ĠSignal
Ġwrath
âľ
lot
'/
Ġprojectile
Ġemploying
ĠInterface
191
atellite
ĠRath
package
Ġindications
Jason
Ġargs
ĠGHz
Ġtilt
nants
won
ãĤµ
redd
rescent
ĠCalendar
Ġmodular
Ġassisting
Ġredeem
ĠBean
Ġworsh
Ġdecentralized
)...
377
Ġarrays
Ġaccomplishments
Î¿
dot
Ġmutually
Ġobstruct
Ġmisrepresent
orest
ionic
ruce
%;
Ġknowingly
porting
inently
Ari
ĠSchultz
Da
ĠCere
Ġobsolete
ħĭ
give
Ġbait
Ġenlarg
Neill
Ġ1933
Ġreconsider
ĠSergeant
ĠDiane
ĠCogn
ĠIcon
Position
Ġfost
Ġstirring
seven
ĠSpaceX
uggets
Ġmedd
Gal
ĠSister
Boy
Ġtriggering
Taking
Ġscreams
Ġcausal
Ġawaken
Arm
297
Ġdispatched
ĠFALSE
Ġorganizational
ĠTong
Ġdilemma
demon
Spl
Ġhooks
uding
Ġvalidate
Ġpotion
Ġclaw
Ġburgl
Ġquir
ACA
ĠBrennan
Ġdurability
Ġbombings
ĠWindow
Ġculprit
325
Therefore
umbered
performance
warts
Ġenforcing
ĠBlow
Ġreprint
ifax
alpha
Ġsinister
Ġburger
fighting
Score
ĠStones
iem
405
chemy
Ġvinegar
nom
Ġprevailing
ĠLatest
Â¶
Ġba
ĠWriter
Ġ177
ĠConway
Ġcollects
Ġquantitative
Ġhorrors
ogens
ĠSlov
Ġlays
haw
ĠSlash
Ġnightclub
ĠDavies
Ġbride
ĠScarlet
ymm
ĠApplications
velength
Ġrevival
Ġsoftly
Ġzoo
itaire
Cur
Ġelectrom
Ġplanting
OTO
ĠElements
Ġswallow
porter
Ġlaptops
Ġpeanut
Ġlobbyists
Î²
Panel
ĠJoan
imil
tnc
Ġresisted
Ġoutwe
Ġretaining
atri
Ġpoorer
ĠSyrians
ĠHammond
Ġweld
uder
topic
ĠTT
ricia
Ġthieves
Lic
ĠGust
ĠWays
areth
243
Ġbroadcaster
shield
assium
uble
Ġairstrikes
onso
Ġpedal
Ġcollectors
ĠVander
ĠMesa
Ġdictator
Ġdir
enton
cart
score
adder
Cry
Ġssh
gger
Ġdrunken
ĠGS
ĠSeat
Ġcornerback
Ġskipped
ĠResearchers
ĠAudi
Reference
Ġhaunted
Ã«
ĠClinic
cz
Ġps
ĠPaladin
ĠRecipe
Ġstigma
oppy
Ġmonkeys
ĠHawk
Sad
"/>
ĠWorkshop
ĠRetail
ĠAvatar
625
Na
ĠVC
ĠSecure
MY
1988
ossip
Ġprostate
Ġunden
Ġgamer
ĠContents
ĠWarhammer
ĠSentinel
310
Ġsegregation
ĠFlex
ĠMAY
Ġdrills
ĠDrugs
Islamic
Ġspur
Ġcafe
Ġimaginary
Ġguiding
Ġswings
ĠTheme
oby
Ġnud
Ġbegging
Ġstrongh
Ġrejecting
Ġpedestrians
ĠProspect
Rare
sle
Ġconcessions
ĠConstitutional
Ġbeams
Ġfibers
poon
Ġinstincts
property
ĠBIG
Sanders
imates
Ġcoating
Ġcorpses
ĠTRUE
checked
Ġ166
Ash
ĠJS
ĠFiction
Ġcommunal
Ġenergetic
oooooooo
Ġnowadays
ILD
ibo
ĠSUV
Ren
Ġdwelling
Silver
Ġtally
ĠMoving
Ġcoward
Ġgenerals
Ġhorns
Ġcirculated
Ġrobbed
ĠUnlimited
Ġharassed
Ġinhibit
Ġcomposer
ĠSpotify
Ġspreads
364
Ġsuicidal
Ġnoises
ĠStur
Ġsaga
ĠKag
iso
Ġtheoretically
Money
Ġsimilarity
Ġsliced
utils
inges
"-
Ġanth
Ġimped
Module
Throughout
Ġmenus
committee
andi
obj
inav
fired
ĠAbdullah
Ġundead
Ġfonts
Hold
ENG
Ġsustainability
Ġflick
Ġrazor
ĠFest
ĠCharacters
Ġwording
Ġpopulist
Ġcriticizing
Ġmuse
vine
Ġcardboard
Ġkindly
Ġfringe
ĠTheft
icultural
Ġgovernors
Ġï¿½ï¿½ï¿½ï¿½
Ġ163
Ġtimeout
ĠAuth
Children
AU
Ġredemption
ĠAlger
Ġ1914
Ġwaved
Ġastronauts
ograms
Ġswamp
ĠFinnish
Ġcandle
Ġtonnes
utm
Ġray
Ġspun
Ġfearful
articles
Ġcaus
orically
ĠRequires
ĠGol
Ġpope
Ġinaugural
Ġgle
ADA
ĠISIL
ĠOffensive
Ġwatchdog
Ġbalcon
entity
ĠHoo
Ġgallon
ACC
Ġdoubling
Ġimplication
ĠSight
Ġdoctr
-------
Ġ\\
Ġmalt
Roll
Ġâī¥
Ġrecap
adding
uces
ĠBend
figure
Ġturkey
Ġsocietal
ĠTickets
Ġcommercially
Ġspicy
Ġ216
ĠRamp
Ġsuperiority
Ã¯
ĠTracker
Carl
ĠCoy
ĠPatriot
Ġconsulted
Ġlistings
Ġslew
reenshot
ĠGone
Ġ[...]
309
Ġhottest
Ø±
Ġrocky
ĠDiaz
Ġmassage
Ġparaly
Ġpony
Az
Ġcartridge
ĠNZ
Ġsnack
ĠLamar
plement
ĠLeslie
Ġmater
Ġsnipp
246
Ġjointly
ĠBrisbane
ĠiPod
Ġpumping
Ġgoat
ĠSharon
ealing
Ġcoron
Ġanomal
rahim
ĠConnection
Ġsculpture
Ġscheduling
ĠDaddy
athing
Ġeyebrows
Ġcurved
Ġsentiments
Ġdrafting
Drop
([
Ġnominal
ĠLeadership
ĠGrow
Ġ176
Ġconstructive
ivation
Ġcorrupted
gerald
ĠCros
ĠChester
ĠLap
ãģª
OTH
DATA
Ġalmond
probably
Imp
Ġfeast
ĠWarcraft
Flor
Ġcheckpoint
Ġtranscription
Ġ204
Ġtweaks
Ġrelieve
Science
Ġperformer
Zone
Ġturmoil
igated
hibit
ĠCafe
themed
Ġfluor
bench
Ġdecom
ĠUnt
ĠBarrett
ĠFacts
Ġtasting
ĠPTSD
ĠSeal
ĠJudaism
ĠDynamic
ĠCors
Ve
ĠMing
ĠTransform
von
ĠDefenders
ĠTactical
ĠVon
ĠUnivers
Ġdistorted
ĠBreath
?'"
Ġagon
ĠDeadly
Ġlan
ĠCycle
orned
Ġreliably
Ġglor
ĠMonkey
ãĥ¡
Ġadren
Ġmicrowave
ĠAlban
ircraft
digit
smart
ĠDread
Â¯Â¯Â¯Â¯Â¯Â¯Â¯Â¯Â¯Â¯Â¯Â¯Â¯Â¯Â¯Â¯
{{
ĠRochester
Ġsimplified
Ġinflicted
Ġtakeover
Ġyourselves
aditional
Ġmuscular
KS
Ġingen
Tax
ĠFeature
277
Ġcruc
Ġcrate
Ġunidentified
Ġacclaimed
ĠManga
ĠFrances
ĠNepal
ĠGerald
ĠKuwait
Ġslain
ĠHeb
ĠGoku
ãģ®æ
286
Mrs
ĠCody
ĠSanctuary
016
Ġdismant
Ġdataset
ĠHond
buck
ĠPatterson
Ġpalette
ĠGD
icol
ĠLodge
Ġplanetary
akin
ĠRegistered
abwe
ĠPetersburg
Ġhailed
ĠPiece
Sche
ĠDOJ
Ġenumer
181
ĠObserver
ĠBold
founded
commerce
Ġexploits
ĠFinding
URN
ĠSne
ĠAcid
ayette
ĠValues
Ġdrastic
Ġarchitectural
Ġ".
×ķ
umped
Ġwrapping
Ġwidow
ĠSlayer
lace
once
Germany
avoid
Ġtemples
PAR
Ã´
ĠLucifer
ĠFlickr
lov
forces
Ġscouting
Ġlouder
tesy
Ġbeforehand
Äĵ
ĠNeon
ĠWol
ĠTypically
ĠPolitico
-+-+
Ġbuilder
Ġderive
Kill
Ġpoker
Ġambiguous
Ġlifts
Ġcyt
Ġribs
oodle
ĠSounds
hair
ĠSyndrome
tf
Ġproportional
uid
Ġpertaining
ĠKindle
ĠNegro
Ġreiterated
ĠTonight
oths
ĠCornell
Ġowing
Ġ208
elfare
ocating
ĠBirds
Subscribe
Ġessays
Ġburdens
Ġillustrations
arious
ERAL
ĠCalcul
Ġxen
ĠLinkedIn
ĠJung
Ġredesign
Connor
296
Ġreversal
ĠAdelaide
ĠLL
Ġsinking
Ġgum
USH
capt
ĠGrimm
Ġfootsteps
ĠCBD
ispers
Ġprose
Wednesday
ĠMovies
edin
Ġoverturned
Ġcontentious
USB
~~~~~~~~~~~~~~~~
ĠCopper
Ġpointless
NV
values
olphin
dain
Ġdeposited
ĠGW
Ġpreceded
ĠCla
ĠGolem
ĠNim
ĠÎ²
ĠEngineers
middle
Ġflatt
operative
Ġcouncils
imbabwe
elin
Ġstressful
ĠLD
Ġresh
lake
Ġwheelchair
ĠAlternative
Ġoptimize
operation
Ġpeek
Ġoneself
igil
Ġtransitions
opathy
blank
Ġ169
171
________________________________________________________________
Ġlaundering
Enc
ĠDEC
Ġworkouts
Ġspikes
Ġdinosaurs
Ġdiscriminatory
Pool
Rather
385
RNA
testers
eto
ĠIdentity
Ġvein
ĠBurton
Ġarcade
420
Ultimately
ĠSadly
Ã°
pill
Ġcubic
ĠSpectrum
these
states
Ġunofficial
hawks
ĠEVERY
Ġrainbow
Ġincarceration
anding
Ġsyll
ĠEverton
Ġ179
ĠSerbia
Ġ189
meter
ĠMickey
Ġantiqu
Ġfactual
neck
ĠNare
norm
must
Ġhighways
Ġglam
Ġdividing
ĠSquadron
ĠMartha
Ġbirths
Cover
////////////////
ĠWong
Phot
ĠALS
rio
ĠNonetheless
ĠLemon
Ġ206
ĠEE
Ġderivative
ĠWWII
vote
Ġtherein
Ġseparating
446
sync
ĠStreets
Ġratt
Ġmunicipality
ĠShortly
Ġmonk
),"
Ġscrub
Ġoperatives
Neither
Place
ĠLimit
Female
ĠActor
Character
Ġconstituted
357
Ġprotested
ĠStraw
ĠHeight
ilda
ĠTyph
Ġfloods
Ġcosmetic
WAY
perture
upon
tons
essing
ĠPocket
Ġrooft
ĠCaucas
Ġantidepress
Ġincompatible
ECD
Ġopera
ĠContest
Ġgenerators
lime
Defense
1987
forum
Ġsavage
ĠHungarian
nz
Ġmetallic
Ġexpelled
Ġresidency
Ġdresses
666
ĠClement
fires
Category
Ġgeek
alis
Ġcemetery
educated
Ġcrawl
ĠUnable
ĠTyson
akis
Ġpardon
ĠWra
Ġstrengthened
ĠFors
335
ĠHC
ĠMond
Ġvisuals
ĠBeatles
ettlement
Ġï
gro
Ġbash
Ġpoorest
Ġexcel
Ġaspirations
ĠMunicip
ensible
Ġceremonies
Ġintimidation
ĠCONTR
beck
ĠKap
asu
Ġtrademarks
ĠSew
ĠCompetition
network
ĠArri
ĠTet
Roaming
WC
Dat
Ġsob
Ġpairing
Ġoverdose
SAY
aber
Ġrevolt
ĠFah
acting
eq
estation
Fight
ĠMarks
273
Ġ178
Raw
ãģĭ
349
blocks
Ġverge
estine
ĠPodesta
Ġinvasive
Ġprofoundly
ĠAo
each
Ġlest
interpret
Ġshrinking
Ġerrone
Ġchees
lys
ĠIvy
ĠDirectory
Ġhinted
VICE
Ġcontacting
ĠGent
hei
Ġlabeling
Ġmercury
ĠLite
Ġexpires
Ġdestabil
ritis
cu
Ġfeathers
Ġsteer
Ġprogrammed
ĠVader
Going
ĠElim
Ġyo
ĠMiche
Ġ203
Ġsleeves
Ġbully
ĠHumans
368
Ġcompress
ĠBanner
ARS
Ġawhile
Ġcalib
Ġsponsorship
ĠDifficulty
ĠPapers
Ġidentifier
}.
Ġyog
ĠShia
Ġcleanup
Ġvibe
introdu
imming
Australia
Ġoutlines
ĠYoutube
train
ĠMakes
Ġdeported
Ġcentr
ĠDug
ĠBoulder
ĠBuffy
Ġinjunction
ĠHarley
ĠGroups
ĠDumbledore
ĠClara
Ġ"-
Ġsacrificed
eph
Shadow
ibling
Ġfreelance
Ġevidently
phal
Ġretains
Mir
Ġfinite
dar
ĠCous
Ġrepaired
Ġperiodic
Ġchampionships
Ġasteroid
blind
Ġexpressly
ĠAstros
Ġscaled
Ġgeographical
ĠRapids
Enjoy
Ġelastic
ĠMohamed
Market
begin
Ġdiscovers
Ġtelecommunications
Ġscanner
Ġenlarge
Ġsharks
Ġpsychedel
ĠRouge
Ġsnapshot
isine
XP
Ġpesticides
ĠLSD
ĠDistribution
really
Ġdegradation
Ġdisguise
Ġbiom
ĠEXT
Ġequations
Ġhazards
ĠCompared
)*
Ġvirtues
Ġelders
Ġenhancing
ĠAcross
eros
angling
Ġcombust
ucci
Ġconcussion
Ġcontraception
ĠKang
Ġexpresses
Ġaux
ĠPione
Ġexhibits
Debug
OTAL
ĠAlready
ĠWheeler
Ġexpands
?:
Ġreconciliation
Ġpirates
Ġpurse
Ġdiscourage
Ġspectacle
Rank
Ġwraps
ĠThought
Ġimpending
Opp
ĠAnglo
ĠEUR
Ġscrewed
retched
Ġencouragement
models
Ġconfuse
mmm
ĠVitamin
âĸĳâĸĳ
Cru
Ġknights
Ġdiscard
Ġbishops
ĠWear
ĠGarrett
kan
ãĥŁ
Ġmasculine
capital
ĠAus
Ġfatally
thanks
ĠAU
ĠGut
1200
Ġ00000000
Ġsurrog
ĠBIOS
raits
ĠWatts
Ġresurrection
ĠElectoral
ĠTips
4000
Ġnutrient
Ġdepicting
Ġsprink
Ġmuff
ĠLIM
ĠSample
psc
ibi
generated
Ġspecimens
Ġdissatisf
Ġtailored
Ġholdings
ĠMonthly
ĠEat
poons
Ġnec
ĠCage
ĠLotus
ĠLantern
Ġfrontier
Ġpensions
Ġjoked
ĠHardy
=-=-=-=-
rade
UID
Ġrails
Ġemit
Ġslate
Ġsmug
Ġspit
ĠCalls
ĠJacobs
feat
ĠUE
Ġrestruct
Ġregeneration
Ġenergies
ĠConnor
OHN
ĠCheese
Ġger
Ġresurrect
management
NW
Ġpresently
ĠBruins
Member
ĠMang
idan
Ġboosting
wyn
+.
requisite
ĠNYPD
ĠMegan
ĠConditions
Ġpics
nesium
ĠRash
Ġ174
ĠDucks
Ġembro
zu
onian
religious
Ġcraz
ĠACA
ĠZucker
EMA
ĠPros
Weapon
ĠKnox
ĠArduino
Ġstove
Ġheavens
ĠPurchase
Ġherd
Ġfundraiser
Digital
5000
Ġproponents
/âĢĭ
Ġjelly
ĠVisa
Ġmonks
Ġadvancement
ĠWer
Ġ187
eus
ertility
Ġfetal
Ġ1936
Lo
Ġoutfits
Ġstaircase
bomb
Ġcustomized
clair
Tree
Ġmapped
ĠConsidering
ĠTorres
Ġmethyl
Ġapproximate
Ġdoom
ĠHansen
Ġcrossover
Ġstandalone
ä¼
Ġinvites
Ġgraveyard
Ġhp
DonaldTrump
Ġescort
Gar
Ġpredecessors
Ġhay
Ġenzyme
ĠStraight
visors
Ing
aneously
ĠApplied
Ġfec
ĠDurant
Ġoutspoken
orb
Ġzeal
Ġdisgrace
').
ĠCheng
289
ĠRena
ĠSuicide
294
Ġoutraged
ĠNewman
ĠNvidia
ĠAber
ĠBers
Ġrecreation
Window
ĠDP
xe
Ġpedoph
Ġfallout
amboo
Ġpresentations
ĠApps
Ġhtml
345
ĠXXX
Ġrubbing
ĠLeather
Ġhumidity
seys
established
ĠUnits
646
Ġrespectable
Auto
Ġthriving
ĠInnovation
angs
Extra
regulation
298
pick
Examples
ĠCJ
Attack
Ġdracon
LT
Ġsticker
rers
Ġsunny
Iss
regulated
dim
ĠAbstract
Ġhusbands
Office
omination
itars
ANGE
ascal
ĠKris
ĠInfantry
Ġmalf
ĠAthe
ĠRally
balanced
........................
OUP
Ġmolecule
metics
ĠSplit
ĠInstructions
ĠNights
cards
Ġtug
Ġcone
åŃ
Ġtx
ĠDiscussion
Ġcatastrophe
ppe
gio
Ġcommunism
Ġhalted
ĠGuant
clean
ĠSched
ĠKanye
Ġwander
ĠSeriously
Ġ188
ennial
follow
productive
ĠFlow
ĠSail
Ġcraw
Ġsimulations
oru
angles
ĠNolan
Ġmenstru
470
Ġ207
aja
Ġcasually
boarding
Ġ222
ovy
ĠNumbers
umat
OE
287
ĠClemson
Ġcerts
Ġslid
ĠTribe
Ġtoast
Ġfortunes
Ġfals
ĠCommittees
Ġgp
Ġfiery
ĠNets
ĠAnime
Package
ĠCompare
laughter
infect
Ġatrocities
Ġjustices
Ġinsults
ĠVernon
Ġshaken
Ġpersona
estamp
367
brain
Ġexperimenting
Ken
ĠElectronics
Ġ161
domain
Ġgraphical
bishop
Ġwhopping
ĠEvangel
Ġadvertisers
ĠSpear
Ġbids
Ġdestroys
utz
Ġundersc
ĠADD
Ġants
ĠCum
ipples
ĠFill
Ġglanced
Ġindicted
ĠEff
Ġmiscon
ĠDesktop
Ġabide
ãĥĢ
ĠIo
ĠCoul
Ġcapsule
ĠChrys
MON
Ġundes
ĠIRA
Ġcitation
Ġdictate
ĠNetworks
ĠConflict
ĠStuff
xa
isec
ĠChemistry
Ġquarterly
Williams
anan
Opt
ĠAlexandria
outheastern
ĠSpringfield
ĠBlacks
Ġgeography
242
Ġutmost
ĠExxon
abouts
EVA
ĠEnable
ĠBarr
Ġdisagreed
ĠCyprus
Ġdementia
Ġlabs
Ġubiquitous
ĠLOVE
Ġconsolidated
sr
Ġcreamy
ĠTimber
Regardless
ĠCertificate
Ġ"...
ogenous
Captain
Ġinsulting
ĠSoros
ĠInstr
ĠBulgaria
better
Ġsucking
ĠDavidson
atz
Ġcollateral
gif
Ġplagued
ĠCancel
ĠGardner
RB
Ġsixteen
Remove
uristic
cook
Rod
Ġcomprising
fle
)âĢĶ
ĠViking
growth
agonal
Ġsrf
afety
mot
Nearly
stown
ĠFactor
Ġautomobile
Ġprocedural
mask
ampires
Ġdisappears
jab
315
Ġ1951
needed
Ġdaring
leader
Ġpodium
Ġunhealthy
Ġmund
Ġpyramid
ocre
Ġkissed
Ġdreamed
ĠFantastic
ĠGly
åĬ
Ġgreatness
Ġspices
Ġmetropolitan
Ġcompuls
iets
1016
ĠSham
ĠPyr
flies
ĠMidnight
Ġswallowed
Ġgenres
ĠLucky
ĠRewards
Ġdispatch
ĠIPA
ĠApply
Ġaven
alities
312
things
Ġ().
Ġmates
ĠSz
ĠCOP
olate
OFF
Ġrecharge
caps
ĠYorker
icone
Ġgalaxies
ileaks
Dave
ĠPuzz
ĠCeltic
ĠAFC
276
ĠSons
Ġaffirmative
Hor
Ġtutorials
ĠCITY
ĠRosa
ĠExtension
Series
Ġfats
Ġrab
lis
Ġunic
Ġeve
ĠSpin
Ġadulthood
typ
Ġsectarian
Ġcheckout
ĠCycl
Single
Ġmartyr
Ġchilling
888
oufl
Ġ];
Ġcongestion
mk
ĠWhereas
Ġ1938
urrencies
erion
Ġboast
ĠPatients
Ġchap
ĠBD
realDonaldTrump
Ġexamines
hov
Ġstartling
ĠBabylon
wid
omew
brance
ĠOdyssey
wig
Ġtorch
ĠVox
ĠMoz
ĠTroll
ĠAns
Similarly
ĠFul
006
Unless
ĠAlone
stead
ĠPublisher
rights
tu
ĠDoesn
Ġprofessionally
Ġclo
icz
Ġsteals
Ġá
1986
Ġsturdy
ĠJohann
Ġmedals
Ġfilings
ĠFraser
done
Ġmultinational
Ġfeder
Ġworthless
Ġpest
Yesterday
ankind
Ġgays
Ġborne
ĠPOS
Picture
Ġpercentages
251
rame
Ġpotions
AMD
ĠLebanese
Ġrang
ĠLSU
ongs
Ġpeninsula
ĠClause
ALK
oha
ĠMacBook
Ġunanimous
Ġlenders
Ġhangs
Ġfranchises
orers
ĠUpdates
Ġisolate
andro
Soon
Ġdisruptive
ĠSurve
Ġstitches
ĠScorp
ĠDominion
Ġsupplying
Arg
Ġturret
ĠLuk
Ġbrackets
*)
ĠRevolutionary
ĠHonest
Ġnoticing
ĠShannon
Ġafforded
Ġtha
ĠJanet
!--
ĠNarendra
ĠPlot
Hol
sever
eenth
Ġobstruction
Ġ1024
staff
jas
orget
scenes
laughs
ĠFargo
crime
Ġorchestr
Ġdelet
iliary
rieved
Ġmilitar
ĠGreene
âĹı
ãģ¦
ĠGuards
Ġunleashed
ĠWeber
Ġadjustable
Ġcaliber
Ġmotivations
ĠÃł
mAh
ĠLanka
handle
Ġpent
ĠRav
ĠAngular
ĠKau
[...]
